#version: 0.2
는 데</w>
너 무</w>
친 구</w>
해 서</w>
에 서</w>
다 고</w>
사 람</w>
에 게</w>
생 각</w>
으 로</w>
어 서</w>
라 고</w>
아 서</w>
걱 정</w>
정 말</w>
회 사</w>
모 르</w>
스 러
해 야</w>
많 이</w>
한 테</w>
힘 들</w>
건 강</w>
요 즘</w>
마 음</w>
니 까</w>
때 문</w>
아 내</w>
오 늘</w>
지 만</w>
스러 워</w>
남 편</w>
어 떻
어떻 게</w>
우 리</w>
다 는</w>
기 분</w>
결 혼</w>
이 번</w>
학 교</w>
이 제</w>
거 든</w>
면 서</w>
인 데</w>
자 기</w>
준 비</w>
나 이</w>
까 지</w>
은 데</w>
부 모</w>
으 면</w>
렇 게</w>
아 들</w>
다 른</w>
직 장</w>
려 고</w>
엄 마</w>
지 금</w>
할 지</w>
불 안</w>
가 족</w>
자 식</w>
아 니</w>
아 이</w>
다 니</w>
보 다</w>
자 꾸</w>
는 지</w>
그 래
고 민</w>
혼 자</w>
당 황</w>
속 상
남 자</w>
공 부</w>
더 라고</w>
취 업</w>
심 히</w>
같 이</w>
열 심히</w>
아 직</w>
시 간</w>
슬 퍼</w>
짜 증</w>
계 속</w>
을 까</w>
노 후</w>
여 자</w>
병 원</w>
부 터</w>
이 렇게</w>
더 니</w>
업 무</w>
트 레
다 가</w>
스 트레
스트레 스</w>
대 로</w>
연 락</w>
갑 자기</w>
은 퇴</w>
동 안</w>
아 무
만 나</w>
얘 기</w>
속상 해</w>
아 빠</w>
져 서</w>
아 무</w>
그래 서</w>
그 런
해 도</w>
으 니</w>
그 런</w>
라 도</w>
들 어
선 생</w>
떨 어
없 이</w>
할 까</w>
성 적</w>
하 나</w>
괴 롭
항 상</w>
상 사</w>
기 뻐</w>
따 돌
이 야
이야 기</w>
우 울</w>
잘 못</w>
시 험</w>
스 럽</w>
로 워</w>
문 제</w>
자 신</w>
생 활</w>
어 려
운 동</w>
와 서</w>
마 다</w>
어 제</w>
그 냥</w>
이 랑</w>
매 일</w>
나 가</w>
라 는</w>
이 런</w>
상 처</w>
후 회</w>
직 원</w>
조 금</w>
사 실</w>
못 하</w>
이 상</w>
소 리</w>
라 서</w>
당 하</w>
동 생</w>
워 서</w>
버 렸</w>
동 료</w>
얼 마</w>
미 안</w>
그 러</w>
아 프</w>
대 화</w>
한 심</w>
신 경</w>
한 다고</w>
억 울</w>
주 변</w>
관 계</w>
텐 데</w>
셔 서</w>
대 학</w>
상 황</w>
다 행</w>
혼 란</w>
실 망</w>
두 려
모 두</w>
돼 서</w>
면 접</w>
처 럼</w>
눈 물</w>
을 지</w>
더 라</w>
어 야</w>
부 끄
이 나</w>
여 행</w>
아 야</w>
다 시</w>
노 력</w>
그 렇게</w>
그런 데</w>
머 니</w>
느 낌</w>
건 지</w>
도 와</w>
걸 까</w>
아 닌
실 수</w>
무 시</w>
따돌 림</w>
아 주</w>
치 료</w>
친 한</w>
위 해</w>
처 음</w>
연 애</w>
그 렇</w>
그래 도</w>
자 고</w>
무 슨</w>
려 서</w>
결 과</w>
빨 리</w>
관 리</w>
함 께</w>
모 습</w>
필 요</w>
세 상</w>
두려 워</w>
내 일</w>
시 작</w>
충 격</w>
봐 야</w>
러 워</w>
행 복</w>
오 래</w>
자 리</w>
예 전</w>
대 해</w>
가 지</w>
정 도</w>
답 답</w>
먼 저</w>
도 움</w>
지 내</w>
전 화</w>
자 주</w>
무 서
이 유</w>
진 짜</w>
의 사</w>
검 진</w>
줘 서</w>
이 해</w>
사 이</w>
언 니</w>
수 술</w>
점 점</w>
아 파
인 지</w>
보 내</w>
로 운</w>
느 껴
디 어</w>
나 오</w>
아 픈</w>
괴 로워</w>
합 격</w>
조 심</w>
냐 고</w>
감 사</w>
프 로
코 로
코로 나</w>
폭 력</w>
고 생</w>
돌 아
평 소</w>
나 왔</w>
진 로</w>
하 루</w>
슬 프</w>
관 심</w>
벌 써</w>
언 제</w>
생 겼</w>
괴롭 히</w>
서 로</w>
어 도</w>
고 마
승 진</w>
동 기</w>
잖 아</w>
보 이</w>
얼 마
한 데</w>
제 대로</w>
얼마 나</w>
부 족</w>
못 했</w>
아 파</w>
어 떤</w>
그 만
프로 젝
프로젝 트</w>
모 아</w>
으 니까</w>
어 떡</w>
근 데</w>
겠 어</w>
다 음</w>
자 금</w>
선 물</w>
아닌 데</w>
투 자</w>
별 로</w>
사 랑</w>
귀 찮</w>
외 로워</w>
야 지</w>
다 녀
원 비</w>
사 고</w>
모 임</w>
드 디어</w>
느 라</w>
괜 찮</w>
보 여</w>
그 랬</w>
헤 어
챙 겨</w>
이 젠</w>
질 환</w>
재 정</w>
당 했</w>
제 일</w>
찾 아
막 막</w>
나 와</w>
건 데</w>
질 투</w>
중 요</w>
노 인</w>
퇴 직</w>
빌 려</w>
할 머니</w>
약 속</w>
사 업</w>
이 러</w>
이 혼</w>
모 든</w>
대 한</w>
새 로운</w>
매 번</w>
느 껴</w>
편 안</w>
몰 랐</w>
상 태</w>
몰 라</w>
불 편</w>
인 정</w>
어 디</w>
느껴 져</w>
께 서</w>
초 조</w>
여 유</w>
어 나</w>
무서 워</w>
주 식</w>
여 서</w>
얼 굴</w>
아무 것</w>
혈 압</w>
감 정</w>
가 장</w>
했 었</w>
입 원</w>
눈 치</w>
힘 든</w>
음 식</w>
생 기</w>
그 래</w>
만 큼</w>
속상 하</w>
싸 우</w>
래 도</w>
다 리</w>
출 산</w>
바 람</w>
머 리</w>
용 돈</w>
내 게</w>
그 동안</w>
사 장</w>
지 원</w>
부 장</w>
행 동</w>
될 까</w>
한 다는</w>
인 생</w>
기 대</w>
퇴 근</w>
방 법</w>
아파 서</w>
요 새</w>
들어 가</w>
그 럴</w>
취 직</w>
팀 장</w>
잔 소리</w>
아무 래도</w>
수 록</w>
살 아
무 엇</w>
가 난</w>
밖 에</w>
그 게</w>
평 생</w>
짓 말</w>
거 짓말</w>
생 일</w>
말 씀</w>
만 들</w>
떨어 졌</w>
웠 어</w>
오 랜
오랜 만</w>
선 배</w>
시 키</w>
구 역</w>
거 리</w>
싸 웠</w>
볼 까</w>
최 근</w>
아 버
경 제</w>
사 과</w>
아 닌</w>
배 신</w>
나 와서</w>
당 뇨</w>
입 사</w>
아무 리</w>
아 침</w>
야 근</w>
부 담</w>
몰 래</w>
만 성</w>
겨 서</w>
부 서</w>
결 혼
학 원</w>
당 혹</w>
출 근</w>
부 부</w>
스러 웠어</w>
당 한</w>
전 혀</w>
성 공</w>
다 가
보 험</w>
하 지만</w>
화 나</w>
해 결</w>
외 롭</w>
해 졌</w>
아버 지</w>
다 면</w>
비 교</w>
그만 두</w>
그런 지</w>
서 운</w>
결 국</w>
주 말</w>
상 담</w>
괜 히</w>
며 칠</w>
신 입</w>
담 배</w>
처 리</w>
만 족</w>
떨어 지</w>
어 쩌</w>
버 리</w>
어려 워</w>
신 감</w>
발 표</w>
도 록</w>
계 획</w>
오 해</w>
옆 집</w>
엄 청</w>
사 귀</w>
기 업</w>
연 금</w>
이 트</w>
임 신</w>
보 고</w>
해 자</w>
재 산</w>
야 겠어</w>
손 자</w>
어 렵</w>
부끄 러워</w>
못 해서</w>
친 하</w>
책 감</w>
성 격</w>
자 랑</w>
학 생</w>
마 시</w>
죄 책감</w>
새 로</w>
검 사</w>
해 고</w>
무 리</w>
노 인정</w>
팀 원</w>
못 한</w>
스러 운</w>
누 구</w>
고 립</w>
부끄 러
능 력</w>
큰 일</w>
배 신감</w>
당 장</w>
기 쁘</w>
좋 아
편 하</w>
인 사</w>
대 체</w>
고마 워</w>
결혼 식</w>
월 급</w>
소 식</w>
끼 리</w>
스 스
포 기</w>
누 나</w>
걸 렸</w>
피 곤</w>
어 머니</w>
떠 나</w>
가 끔</w>
알 아
그 만</w>
여 러</w>
아 기</w>
매 우</w>
거 절</w>
스스 로</w>
위 해서</w>
아 도</w>
마 비</w>
덕 분</w>
고 등
바 로</w>
창 피</w>
희 생</w>
맨 날</w>
우 울
어 쩔</w>
의 견</w>
점 수</w>
이 럴</w>
애 인</w>
대 인</w>
으 면서</w>
후 배</w>
혐 오</w>
환 멸</w>
돌아 가</w>
다 며</w>
나 빠</w>
자 녀</w>
집 안</w>
올 해</w>
만 났</w>
라 니</w>
회 의</w>
해 져</w>
물 건</w>
오 랫
오랫 동안</w>
심 하</w>
사 정</w>
부 분</w>
가 해자</w>
가 져
대 출</w>
사 원</w>
해 야겠어</w>
저 축</w>
버 려
당 해서</w>
시 선</w>
생 겨서</w>
그 걸</w>
으 려고</w>
수 업</w>
소 문</w>
된 다고</w>
치 료
일 찍</w>
바 쁘</w>
가 게</w>
죽 음</w>
떨어 져서</w>
드 리</w>
대 해서</w>
괴롭 힘</w>
대 학교</w>
넘 어
정 신</w>
원 래</w>
동 네</w>
반 대</w>
따돌 리</w>
나 쁜</w>
오 빠</w>
칭 찬</w>
이 사</w>
순 간</w>
사 기</w>
봐 서</w>
그 러
위 기</w>
뭔 가</w>
신 뢰</w>
놀 랐</w>
정 리</w>
만 날</w>
결 정</w>
혹 시</w>
이 후</w>
어 울
힘 드</w>
허 리</w>
쳐 서</w>
어려 운</w>
실 패</w>
생 활
려 면</w>
기 다리</w>
그 리
퇴 사</w>
미 리</w>
과 장</w>
쓰 러
거 나</w>
형 편</w>
졸 업</w>
버려 진</w>
나 중</w>
해 져서</w>
치료 비</w>
저 번</w>
분 명</w>
치 매</w>
집 중</w>
생활 비</w>
지 인</w>
준 히</w>
주 위</w>
꾸 준히</w>
회 식</w>
인 가</w>
나 갔</w>
헤어 지</w>
직 업</w>
일 단</w>
안 일</w>
라 지</w>
고등 학교</w>
기 억</w>
그 것</w>
걸 리</w>
피 하</w>
라 면</w>
성 가</w>
막 상</w>
다 행
진 행</w>
부 탁</w>
맛 있</w>
려 니</w>
다행 히</w>
니 깐</w>
챙 기</w>
줘 야</w>
등 산</w>
질 까</w>
지 난
오 르</w>
종 일</w>
이 게</w>
알 려</w>
느 긋</w>
긴 장</w>
고 백</w>
퇴 직
못 해</w>
다 니까</w>
좋아 하</w>
연 히</w>
느 리</w>
히 려</w>
오 히려</w>
고 맙</w>
키 우</w>
선 택</w>
우울 증</w>
따 라</w>
해 야지</w>
신 고</w>
슬 퍼
집 안일</w>
일 부
일부 러</w>
마 련</w>
이 미</w>
어 릴</w>
어 떻</w>
성 가
본 인</w>
퇴직 금</w>
인 간</w>
빠 서</w>
하 고</w>
조 건</w>
분 위기</w>
피 해</w>
느 끼</w>
나 아
게 임</w>
가 까
일 어나</w>
일 까</w>
아 닐
진 단</w>
저 녁</w>
손 주</w>
누 가</w>
던 데</w>
거 의</w>
전 부</w>
그 때</w>
휴 가</w>
퇴 원</w>
전 히</w>
될 지</w>
일 자리</w>
외 로
어 느</w>
심 해</w>
다 네</w>
이 대로</w>
여 기</w>
시 켜</w>
고 서</w>
의 지</w>
유 지</w>
비 통</w>
미 래</w>
도 대체</w>
려 야</w>
대 하</w>
의 심</w>
생 긴</w>
며 느리</w>
다녀 왔</w>
왕 따</w>
수 치</w>
버 려서</w>
그런 가</w>
체 력</w>
가 정</w>
항 암</w>
힘 든
안 정</w>
무 릎</w>
부끄 럽</w>
바 빠서</w>
물 어
내 려
기 간</w>
걸 린</w>
가 입</w>
축 하</w>
피 우</w>
시 기</w>
대 신</w>
해 진</w>
나 름</w>
아 이
서 류</w>
누 군
험 담</w>
픈 데</w>
열 등</w>
섭 섭</w>
부 러워</w>
마 음
다가 오</w>
근 무</w>
현 실</w>
태 도</w>
영 양
어울 리</w>
기 회</w>
흥 분</w>
연 봉</w>
부 하</w>
만 난</w>
두 렵</w>
그리 고</w>
강 요</w>
친 해</w>
즐 거
이 직</w>
영양 제</w>
기 다
교 통
무 척</w>
무 섭</w>
직 히</w>
죄 송</w>
아닐 까</w>
쓰 여</w>
솔 직히</w>
못 할</w>
확 인</w>
생 겨</w>
교통 사고</w>
화 장
소 개</w>
버 린</w>
사 회</w>
무 원</w>
들어 오</w>
더 군</w>
구 하</w>
평 가</w>
보 여서</w>
다 르</w>
다 녔</w>
끝 나</w>
힘든 데</w>
아 르
위 로</w>
오 랜</w>
아르 바
아르바 이트</w>
실 적</w>
관 련</w>
취 미</w>
쳐 다
알아 보</w>
동 산</w>
년 기</w>
가 진</w>
훨 씬</w>
몰 라서</w>
난 다</w>
허 무</w>
편 해</w>
조 차</w>
요 구</w>
더 욱</w>
효 과</w>
저 기</w>
아 픈데</w>
쓸 쓸</w>
스 크</w>
대 답</w>
당 연</w>
글 쎄</w>
친 했</w>
친 척</w>
청 소</w>
주 일</w>
적 응</w>
적 금</w>
어 쩌
배 우</w>
마 디</w>
다 닐</w>
취 급</w>
의 미</w>
소 개
너 무
건 가</w>
취 소</w>
찾아 오</w>
직 접</w>
어 놓</w>
달 리</w>
자 격
의 식</w>
안 심</w>
성 과</w>
바 라</w>
계 약</w>
통 보</w>
전 학</w>
올 랐</w>
비 싼</w>
가 슴</w>
황 당</w>
자 라</w>
은 행</w>
완 전</w>
수 술
사 진</w>
누군 가</w>
갱 년기</w>
한 지</w>
한 대</w>
탈 락</w>
질 문</w>
점 심</w>
부 동산</w>
공 무원</w>
표 현</w>
빠 지</w>
길 래</w>
준 다고</w>
좌 절
좌절 감</w>
식 사</w>
떨어 져</w>
드 렸</w>
다 는데</w>
는 다고</w>
화 해</w>
하 루
작 년</w>
자 료</w>
아 끼</w>
싸 움</w>
따 라
까 봐</w>
화장 실</w>
아 들
따 로</w>
나 쁘</w>
과 제</w>
한 두</w>
춘 기</w>
예 민</w>
숙 제</w>
사 춘기</w>
봐 도</w>
데 려
회 복</w>
초 라</w>
움 직
명 절</w>
떠 났</w>
자격 증</w>
응 원</w>
으 라고</w>
상 대</w>
바 뀌</w>
동 창</w>
내 년</w>
걸 려서</w>
가 능</w>
통 장</w>
올 라
원 하</w>
엄 청
서 러워</w>
비 밀</w>
부 럽</w>
녀 석</w>
혀 서</w>
으 러</w>
어 렸</w>
부끄러 웠</w>
똑 같</w>
나 갈</w>
고 사</w>
활 동</w>
헤어 졌</w>
어려 워서</w>
너무 나</w>
괴 롭</w>
호 회</w>
친 절</w>
차 라
차라 리</w>
전 공</w>
여 기
여기 저기</w>
아닌 가</w>
시 절</w>
수술 비</w>
수 학</w>
모 은</w>
동 호회</w>
나 빠
꺼 내</w>
털 어놓</w>
악 화</w>
아파 트</w>
솔 직</w>
구 나</w>
간 호</w>
잃 어
소개 팅</w>
비 용</w>
비 슷</w>
조 절</w>
요 양
요양 원</w>
완 치</w>
미 치</w>
재 미
유 산</w>
아무 런</w>
대 비</w>
하루 하루</w>
책 임</w>
좌 절</w>
조 언</w>
산 책</w>
반 응</w>
다 툼</w>
날 까</w>
그 녀</w>
지 낼</w>
저 히</w>
워 하</w>
우 선</w>
언 젠
싸 워서</w>
심 한</w>
수 입</w>
들어 왔</w>
진 학</w>
이 제
유 학</w>
위 한</w>
대 리</w>
핸 드
커 서</w>
지 막</w>
장 례
사 라
마 지막</w>
대 회</w>
당 첨</w>
기 력</w>
금 방</w>
경 험</w>
쳐다 보</w>
차 이</w>
지 켜
지 나</w>
적 성</w>
비 해</w>
복 지</w>
미 워</w>
마 치</w>
나 올</w>
핸드 폰</w>
최 종</w>
제 출</w>
운 데</w>
아닌 지</w>
사 소</w>
비 싸</w>
문 자</w>
무 조건</w>
개 인</w>
해 질</w>
취 약</w>
절 염</w>
육 아</w>
와 이
스러 워서</w>
부 르</w>
보 험
마 주
궁 금</w>
교 육</w>
관 절염</w>
간 다고</w>
호 사</w>
즐 겁</w>
이 어
요 청</w>
배 려</w>
릴 까</w>
데 이트</w>
더 라도</w>
급 하</w>
원 망</w>
와이 프</w>
식 단</w>
슬 펐</w>
부 러
노 래</w>
냄 새</w>
회 의
혼 났</w>
판 정</w>
처 지</w>
엄청 나</w>
심 해서</w>
생 각
살아 가</w>
멀 리</w>
노 년</w>
그러 니까</w>
진 지</w>
진 심</w>
즐 기</w>
올 라서</w>
어려 울</w>
어 린</w>
써 서</w>
사 용</w>
들 으니</w>
다 투</w>
다 녀</w>
넉 넉</w>
걸 로</w>
갑 작
지 쳐</w>
절 대</w>
장 히</w>
인 해</w>
은 지</w>
아 지</w>
심 장</w>
슬 픈</w>
소 중</w>
병 문
병문 안</w>
모 으</w>
모 른</w>
들어 온</w>
다 면서</w>
내 용</w>
굉 장히</w>
겨 우</w>
지 각</w>
월 세</w>
안 달</w>
서 글
발 령</w>
려 는</w>
나 누</w>
자 니</w>
비 참</w>
벌 이</w>
래 처</w>
도 망
나 라</w>
거 래처</w>
정 보</w>
장 난</w>
이 러
영 어</w>
살아 왔</w>
미 루</w>
든 든</w>
던 지</w>
감 기</w>
갈 수록</w>
혼 내</w>
퓨 터</w>
컴 퓨터</w>
추 천</w>
체 육</w>
어 찌</w>
앞 두</w>
아이 디어</w>
수 능</w>
반 복</w>
무 실</w>
때 리</w>
돌 보</w>
경 우</w>
회의 감</w>
악 의</w>
시 켰</w>
생각 나</w>
뿌 듯</w>
바 라지</w>
마 자</w>
놀 라</w>
감 당</w>
커 피</w>
지 치</w>
일 상</w>
어쩌 면</w>
보 냈</w>
물 려
딸 아이</w>
당 연히</w>
허 락</w>
장 사</w>
자 마자</w>
운 전</w>
영 감</w>
식 장</w>
손 해</w>
러 서</w>
뒷 바라지</w>
기 뻤</w>
고 통</w>
겨 워</w>
개 월</w>
혼 나</w>
이 름</w>
역 시</w>
시 어머니</w>
습 관</w>
그 대로</w>
가 만
태 어
지 방</w>
지 긋
지 경</w>
조 급</w>
완 전히</w>
써 야</w>
시 켜
상 대
그 럼</w>
권 유</w>
갈 까</w>
집 사람</w>
지 시</w>
중 년</w>
줄 어
자 체</w>
이 전</w>
심 각</w>
분 명
분명 히</w>
경 력</w>
거 기</w>
희 망</w>
지 키</w>
이 없</w>
이 기</w>
용 기</w>
옛 날</w>
영 화</w>
얼 른</w>
어 이없</w>
아 플</w>
비 웃</w>
불 만</w>
분 노</w>
받 아들
누 워</w>
낙 담</w>
특 히</w>
지 냈</w>
지 갑</w>
재 미</w>
이 용</w>
싫 어
성가 시</w>
설 명</w>
부 정</w>
발 견</w>
날 아
나 온</w>
환 자</w>
폐 암</w>
통 해</w>
척 하</w>
지 병</w>
언젠 가</w>
상 의</w>
부 리</w>
보 낼</w>
마 무리</w>
키 워</w>
차 별</w>
재미 있</w>
위 험</w>
올 라</w>
시 골</w>
상대 방</w>
보 고서</w>
무서 워서</w>
따돌 려</w>
뉴 스</w>
관 절</w>
간 호사</w>
가 방</w>
가 르
차 피</w>
지난 번</w>
절 망</w>
잠 깐</w>
은 근
어 차피</w>
어 색</w>
실 까</w>
숨 기</w>
복 잡</w>
도 저히</w>
다녀 야</w>
금 액</w>
할 아버지</w>
통 화</w>
정 받</w>
인 정받</w>
알 아주</w>
럴 까</w>
된 다</w>
담 임</w>
나 눠</w>
괴롭 혔</w>
화 내</w>
풀 리</w>
지 어</w>
지 난</w>
정 년</w>
일 어
심 지어</w>
불 쌍</w>
분 히</w>
보 태</w>
마음 대로</w>
기 뻐
통 하</w>
최 선</w>
최 고</w>
정 작</w>
올 까</w>
아 예</w>
시 댁</w>
수 익</w>
바 보</w>
마 저</w>
당 할</w>
다가 가</w>
난 리</w>
끝 내</w>
가만 히</w>
지 출</w>
지 적</w>
정 하</w>
저 것</w>
이제 야</w>
이 것</w>
보험 금</w>
믿 기</w>
물 론</w>
독 립</w>
해 외</w>
체 중</w>
줄 까</w>
주 인</w>
이어 트</w>
여 태</w>
쓰 이</w>
신 나</w>
식 품</w>
만 만</w>
때 렸</w>
돌 려
다 이어트</w>
군 대</w>
경 찰</w>
강 아지</w>
한 가</w>
표 정</w>
출 장</w>
채 용</w>
지 나
증 상</w>
정 년
정년 퇴직</w>
작 성</w>
우 연히</w>
온 다고</w>
아 팠</w>
아 쉬
신 청</w>
신 랑</w>
시 도</w>
로 서</w>
된 다는</w>
느껴 져서</w>
기 계</w>
충 분히</w>
천 식</w>
참 여</w>
지 르</w>
지 나가</w>
정 상</w>
위 암</w>
안 타
센 터</w>
민 망</w>
로 부터</w>
똑 같이</w>
드 려야</w>
달 라서</w>
다 퉜</w>
다 쳤</w>
느 꼈</w>
곤 란</w>
고마 운</w>
한 마디</w>
카 드</w>
저 런</w>
재 밌</w>
이 력
이력 서</w>
은근 히</w>
왠 지</w>
손 녀</w>
소 용</w>
마 을</w>
과 연</w>
겨 야</w>
걸 려</w>
간 암</w>
포 즈</w>
키 웠</w>
보 람</w>
버 스</w>
말 다툼</w>
말 기</w>
들어 갔</w>
기 운</w>
기 쁜</w>
교 수</w>
갈 지</w>
학 업</w>
존 심</w>
자 존심</w>
자 는</w>
영 업</w>
엉 망</w>
사 무실</w>
바 라
맡 기</w>
떨 리</w>
듯 이</w>
기 침</w>
펀 드</w>
중 간</w>
줄 이</w>
움직 이</w>
외 식</w>
예 상</w>
실 히</w>
시 대</w>
쇼 핑</w>
세 월</w>
생 길</w>
보 였</w>
방 어</w>
반 장</w>
또 래</w>
디 스크</w>
돌아 오</w>
당 할까</w>
나아 지</w>
괴롭 힌</w>
경 기</w>
간 섭</w>
환 갑</w>
초 기</w>
져 야</w>
재 촉</w>
입 장</w>
잃어 버렸</w>
외 출</w>
예 정</w>
알 려
심 해져서</w>
목 표</w>
모 양</w>
당 해</w>
달 라
고 기</w>
가 격</w>
한 숨</w>
치 밀</w>
이 것
이것 저것</w>
외 모</w>
올 리</w>
빠 듯</w>
떨어 진</w>
내 내</w>
그 리</w>
확 신</w>
피 웠</w>
친 정</w>
책 임
지긋 지
지긋지 긋</w>
주 사</w>
조 별</w>
외 로운</w>
심 정</w>
성 적
보 답</w>
대 표</w>
난 감</w>
까 워</w>
헬 스</w>
합 병
합병 증</w>
함 부
함부 로</w>
하 늘</w>
종 종</w>
익 숙</w>
심 부
심부 름</w>
시켜 서</w>
슬퍼 서</w>
소 홀</w>
담 당</w>
넘어 가</w>
넘 기</w>
그 램</w>
한 다니</w>
프 러
프러 포즈</w>
편 지</w>
전 환</w>
이 걸</w>
운 영</w>
올 려</w>
예 쁘</w>
어 야지</w>
어 른</w>
싫어 하</w>
실 력</w>
성적 표</w>
새 벽</w>
사 수</w>
불 합격</w>
분 야</w>
바 꾸</w>
모 자라</w>
되 게</w>
대 서</w>
다녀 서</w>
내 장</w>
깜 짝</w>
기 념
한 참</w>
이 건</w>
서 럽</w>
버 려</w>
모 른
라 며</w>
든 지</w>
기념 일</w>
군 데</w>
괴롭 혀서</w>
해 봐야</w>
핑 계</w>
지 났</w>
인 터
워 졌</w>
온 종일</w>
열 등
열등 감</w>
도 전</w>
대 충</w>
날 짜</w>
고 지
겠 지</w>
탈 모</w>
저 러</w>
요 일</w>
요 양</w>
요 리</w>
어 찌
식 당</w>
시 끄
속상 했</w>
서 러
무 거
데 리</w>
괴 로
현 재</w>
한 편</w>
카 페</w>
출 금</w>
질 병</w>
장례 식</w>
와 야</w>
어찌 나</w>
어 린
아 리</w>
쓰러 졌</w>
속상 한</w>
빠 져</w>
봐 야지</w>
모 았</w>
들어 갈</w>
당 뇨
당뇨 병</w>
는 다는</w>
게 다가</w>
확 실</w>
특 별</w>
진 정</w>
원 금</w>
에 겐</w>
싸 운</w>
명 품</w>
매 달</w>
마 감</w>
떨 려</w>
경 로
각 자</w>
가져 가</w>
회 장</w>
제 안</w>
자 살</w>
잊 어
인터 넷</w>
으 시</w>
워 야</w>
우울 해</w>
연 습</w>
약 간</w>
신 체</w>
설 레</w>
비 전</w>
분 간</w>
벗 어나</w>
바 쁜</w>
말 로</w>
막 내</w>
대 출금</w>
당 분간</w>
너 스</w>
기 한</w>
급 여</w>
과 거</w>
혈 증</w>
학 과</w>
천 히</w>
천 천히</w>
처 벌</w>
차 려</w>
지 로</w>
존 재</w>
자 유</w>
입 학</w>
용 없</w>
예 퇴직</w>
억 지로</w>
어 리</w>
슬 슬</w>
소 용없</w>
상 상</w>
불 러</w>
백 수</w>
방 해</w>
바라 보</w>
모 아서</w>
명 예퇴직</w>
등 급</w>
대 상</w>
냐 는</w>
까 먹</w>
금 연</w>
고 객</w>
경로 당</w>
혹 시
혹시 나</w>
진 급</w>
주 택</w>
유 명</w>
여 전히</w>
에 선</w>
신 세</w>
세 대</w>
사 귄</w>
부 쩍</w>
방 문</w>
무 언
매 출</w>
당 당</w>
놀 리</w>
기 사</w>
괴롭 혀</w>
과 외</w>
공 평</w>
화 목</w>
편 히</w>
태 어나</w>
충 분</w>
정 말로</w>
자 연</w>
이 거</w>
은 가</w>
씁 쓸</w>
신 혼</w>
식 구</w>
사 내</w>
별 히</w>
무언 가</w>
무 너
몰 라
동 아리</w>
기다 려</w>
가 벼
투 병</w>
참 석</w>
지난 주</w>
장 기</w>
이 동</w>
음 악</w>
은 이</w>
욕 심</w>
안 도</w>
소 통</w>
사 히</w>
불 우</w>
버 릴</w>
반 찬</w>
바 빠</w>
멀 쩡</w>
마 스크</w>
당 히</w>
달 라</w>
는 군</w>
내려 가</w>
나 타
급 한</w>
금 전</w>
피 해자</w>
특 별히</w>
툴 툴</w>
지 켜</w>
즐거 워</w>
제 도</w>
전 거</w>
저 렇게</w>
자 존</w>
자 전거</w>
이 별</w>
완 벽</w>
온 몸</w>
소 외</w>
부 당</w>
무 사히</w>
딱 히</w>
도 박</w>
대 놓
대놓 고</w>
그 저</w>
과 목</w>
환 경</w>
혼 날</w>
해 낼</w>
파 티</w>
처 방</w>
조 용</w>
조 용
조용 히</w>
제 나</w>
원 서</w>
언 제나</w>
아 마</w>
상 하</w>
부 자</w>
부 인</w>
복 권</w>
미 칠</w>
뭔 지</w>
몹 시</w>
렇 지만</w>
그 렇지만</w>
고지 혈증</w>
계 산</w>
갑작 스럽</w>
가까 운</w>
가 져</w>
폭 행</w>
중 학교</w>
주 도</w>
적 극</w>
예 약</w>
쓸 모
쓸모 없</w>
시 장</w>
서글 퍼</w>
드 릴</w>
날아 갈</w>
기 획</w>
학 기</w>
하 철</w>
최 대한</w>
창 업</w>
직 무</w>
지 하철</w>
지 속</w>
줄어 들</w>
정 기</w>
예 의</w>
여 야</w>
어 지</w>
어 깨</w>
았 었</w>
성가 신</w>
서 울</w>
빌 리</w>
부끄러 워서</w>
부끄러 운</w>
병 실</w>
버 티</w>
맞 춰</w>
망 쳤</w>
마주 치</w>
마 흔</w>
늘 어나</w>
고등 학생</w>
했 으니</w>
학 년</w>
테 크</w>
전 하</w>
전 달</w>
위 축</w>
양 보</w>
압 박</w>
살아 온</w>
사라 졌</w>
보 증</w>
백 만</w>
방 금</w>
바 꿔</w>
물어 봐서</w>
못 할까</w>
들어 와서</w>
도 착</w>
나 서</w>
고 혈압</w>
헤어 진</w>
티 브
티브 이</w>
커 녕</w>
재 테크</w>
잘 난</w>
일 정</w>
쉬 운</w>
설 득</w>
다녀 오</w>
그 럴까</w>
국 어</w>
구 조</w>
괴롭 힐</w>
공 감</w>
고 향</w>
고 장</w>
한 결</w>
지 도</w>
재 발</w>
잔 뜩</w>
인 상</w>
이 식</w>
의 문</w>
용 서</w>
외로 움</w>
와 도</w>
영 향</w>
아무 렇</w>
사 회
사 라지</w>
보 너스</w>
무서 운</w>
만 드</w>
나 마</w>
기 본</w>
그러 면</w>
구 박</w>
갔 었</w>
휴 직</w>
프로 그램</w>
텔 레
텔레 비전</w>
치 우</w>
추 석</w>
집 값</w>
지 역</w>
즐거 운</w>
종 양</w>
이 익</w>
이 성</w>
아쉬 워</w>
신 경
방 학</w>
라 네</w>
동 창
동 성
근 처</w>
고 치</w>
청 년</w>
챙 겨야</w>
착 각</w>
질 렀</w>
중 간
줄 지</w>
조 사</w>
장 애</w>
장 소</w>
일 구</w>
이 자</w>
약 값</w>
아 야지</w>
아 껴</w>
아 까</w>
심 심</w>
수 정</w>
보 상</w>
별 거</w>
바 닥</w>
무 지</w>
맞 벌이</w>
망 했</w>
마 셨</w>
라 니까</w>
동창 회</w>
단 체</w>
끔 찍</w>
구 해</w>
구 먼</w>
골 프</w>
감 동</w>
가 질</w>
가 로
확 실히</w>
편 한</w>
찾아 가</w>
착 한</w>
지 지</w>
존 경</w>
조 정</w>
잡 히</w>
이러 다</w>
이 리</w>
유 일</w>
워 져서</w>
예 뻐</w>
업 체</w>
안 쓰
아 냐</w>
신경 질</w>
신 대</w>
시 킨</w>
생 계</w>
만 약</w>
만 든</w>
만 기</w>
마 냥</w>
려 는데</w>
따돌 렸</w>
들 으면</w>
더 라면</w>
노 트</w>
날 씨</w>
그만 큼</w>
공 원</w>
고 집</w>
고 사
겁 나</w>
한 잔</w>
하 필</w>
파 혼</w>
통 증</w>
추 억</w>
지 낸</w>
지 겨워</w>
중간 고사</w>
재 수</w>
입 시</w>
인 원</w>
이 웃</w>
의 도</w>
외 국</w>
올라 가</w>
예 쁜</w>
어려 움</w>
어 날</w>
아파 도</w>
아 쉽</w>
시 력</w>
시 경</w>
빠 르</w>
빌 려
복 수</w>
변 화</w>
번 호</w>
무 기력</w>
목 소리</w>
맞 추</w>
등 록
내 시경</w>
긍 정</w>
그 건</w>
굳 이</w>
구 해야</w>
구 할</w>
과 정</w>
견 디</w>
가르 쳐</w>
가 락</w>
해 외
해외 여행</w>
할 수록</w>
한 번</w>
주 의</w>
작 업</w>
이 틀</w>
이 래
이 겨</w>
으 며</w>
육 비</w>
예 인</w>
연 예인</w>
어 지
어 머
실 감</w>
성 인</w>
살 림</w>
사회 생활</w>
쁜 데</w>
빠 져서</w>
불 행</w>
버 릇</w>
바 람
미 워하</w>
려 나</w>
등록 금</w>
들어 도</w>
단 절</w>
남 겨
톨 이</w>
쪄 서</w>
정 부</w>
정 규
정규 직</w>
일 방</w>
이 션</w>
이 루</w>
외 톨이</w>
외 감</w>
역 겨워</w>
알 리</w>
쓰 레
소 외감</w>
불 쾌</w>
불 러서</w>
보 단</w>
믿 음</w>
모 이</w>
모 를</w>
라 는데</w>
드 라
뒤 처지</w>
된 대</w>
대 접</w>
다 닌</w>
나아 질</w>
꺼 려</w>
그 림</w>
그 니까</w>
국 민</w>
게 서</w>
해 내</w>
핀 잔</w>
폭 위</w>
찾아 와서</w>
장례 식장</w>
자 괴
자괴 감</w>
어머 님</w>
안타 까워</w>
스러 웠</w>
소 기업</w>
세 금</w>
망 설
뛰 어
따 르</w>
따 뜻</w>
디 션</w>
들 리</w>
둬 야</w>
데 도</w>
다 닌
냐 며</w>
길 까</w>
교 실</w>
괘 씸</w>
고마 웠</w>
경 쟁</w>
각 지</w>
훔 쳐</w>
홀 로</w>
현 장</w>
허 전</w>
풀 이</w>
천 만</w>
중 소기업</w>
주 문</w>
존 중</w>
정 신
저 만</w>
잔 치</w>
자 세</w>
이 만
이만 저만</w>
이 라도</w>
워 낙</w>
스러 울</w>
술 자리</w>
수 다</w>
서 른</w>
상 품</w>
산 다고</w>
보 통</w>
병 간호</w>
문 제
라 면서</w>
들어 간</w>
돌 봐</w>
도 통</w>
눈 앞</w>
급 식</w>
극 복</w>
구 매</w>
한 다</w>
필 기</w>
편 해졌</w>
통 해서</w>
진 료</w>
젊 은이</w>
전 체</w>
잠 시</w>
인 턴</w>
음 직</w>
으 신</w>
워 져</w>
예 뻐
안 부</w>
쓰러 져서</w>
심 해졌</w>
신 장</w>
시 비</w>
시 부모</w>
속상 해서</w>
소 심</w>
성 실</w>
별 일</w>
변 하</w>
마 땅</w>
로 또</w>
뚱 뚱</w>
두려 움</w>
돌 리</w>
대 부분</w>
다 친</w>
다 쳐서</w>
내 기</w>
고 는</w>
결혼 기념일</w>
거 지</w>
가까 워</w>
후 련</w>
행 사</w>
한 동안</w>
징 계</w>
줌 마</w>
원 인</w>
아 줌마</w>
시 지</w>
슬퍼 하</w>
상 금</w>
빠 졌</w>
봉 사</w>
보 인
밤 새</w>
물려 주</w>
목 돈</w>
말 고사</w>
마 누
마누 라</w>
따 지</w>
대 책</w>
다 지</w>
다 공
다공 증</w>
날 렸</w>
나빠 져서</w>
기 말고사</w>
골 다공증</w>
고마 움</w>
가까 이</w>
통 과</w>
킬 까</w>
초 대</w>
줘 도</w>
재 혼</w>
자 산</w>
인 기</w>
인 과</w>
음 식
으 셔서</w>
으 려</w>
외로 워서</w>
영 상</w>
에 게서</w>
어려 서</w>
심 란</w>
신 발</w>
속 마음</w>
속 도</w>
서 먹</w>
방 식</w>
메 시지</w>
레 스
따라 가</w>
도 무지</w>
도 둑</w>
대 학원</w>
대 단</w>
낼 까</w>
기 특</w>
기 술</w>
그만 뒀</w>
권 고사
권고사 직</w>
격 려</w>
할 까봐</w>
한 다면</w>
트 집</w>
출 신</w>
찾아 보</w>
주 제</w>
전 교</w>
으 셔</w>
으 론</w>
유 방
유방 암</w>
유 독</w>
약 해</w>
아 니
스 마
부 려</w>
려 도</w>
뜻 대로</w>
독 감</w>
도 중</w>
대 처</w>
대 우</w>
는 데도</w>
나 빴</w>
그리 워</w>
교 육비</w>
계 약
계 시</w>
경 쟁
걸 릴</w>
가 볍</w>
학 창</w>
태어 났</w>
커 닝</w>
초 등</w>
재 취업</w>
인 연</w>
운 지</w>
외 면</w>
오 를</w>
어려 웠</w>
어 떨
애 자</w>
쓰러 지</w>
싸 울</w>
상 해</w>
사 사
사사 건
사사건 건</w>
사 건</w>
뻔 뻔</w>
빌 린</w>
불 안
부 인과</w>
부 딪
벌 리</w>
뱃 살</w>
몰라 주</w>
목 격</w>
맞 춰
된 다면</w>
대 해야</w>
다 섯</w>
넘 겨</w>
난 다고</w>
나빠 졌</w>
꾸 준</w>
거 려</w>
헷 갈
판 단</w>
청 혼</w>
찾아 와</w>
참 견</w>
조 카</w>
조 직</w>
조 만
조만 간</w>
조 마</w>
조 마
조마 조마</w>
정 시</w>
전 세</w>
재 능</w>
장 암</w>
자 퇴</w>
이 겨
을 수록</w>
위 원
외로 웠</w>
연 차</w>
어려 운데</w>
알아 봐야</w>
실 직</w>
실 제
수 군
소 화</w>
살아 갈</w>
부 도</w>
받아들 이</w>
문 화</w>
무 능</w>
모 자
머 리
막 히</w>
떨어 질</w>
두려 운</w>
돌 려</w>
도망 가</w>
도 감</w>
단 순</w>
놔 서</w>
낭 비</w>
고 쳐</w>
거 래</w>
가 졌</w>
학 점</w>
피 운</w>
피 부</w>
키 운</w>
책 상</w>
착 하</w>
차 례</w>
짝 사랑</w>
진 다고</w>
중 학생</w>
졌 으면</w>
절 교</w>
전 문</w>
적 당히</w>
잘 렸</w>
이 터</w>
으 려니</w>
옮 기</w>
연 인</w>
어 느
안 도감</w>
손 님</w>
소 원</w>
세 우</w>
산 부인과</w>
사 망</w>
비 하</w>
볼 지</w>
버 림</w>
발 생</w>
바람 피우</w>
바 쁜데</w>
물어 봐야</w>
멈 추</w>
매 년</w>
맡 겼</w>
뜨 렸</w>
다 정</w>
늦 잠</w>
농 사</w>
기다 렸</w>
계 단</w>
거 울</w>
휴 대
휴대 폰</w>
혜 택</w>
하 면</w>
키 울</w>
치 킨</w>
취 해서</w>
차 리</w>
지켜 보</w>
지난 달</w>
지 쳤</w>
지 원금</w>
줘 야겠어</w>
전 형</w>
의 자</w>
염 병</w>
어쩌 다</w>
애 정</w>
쌓 이</w>
실제 로</w>
시끄 럽</w>
스 터
새 롭</w>
상 관
사 촌</w>
빌 렸</w>
비 난</w>
방 송</w>
머 릿
막 내
답 장</w>
다 치</w>
나 온
기뻐 서</w>
그 나마</w>
간 질</w>
간 단</w>
가 분</w>
홀 가분</w>
하 나
피 워서</w>
퇴 학</w>
택 근무</w>
착 잡</w>
진 작</w>
재 택근무</w>
임 원</w>
인 슐
인슐 린</w>
음식 점</w>
위원 회</w>
웃 음</w>
어려 워져서</w>
어 요</w>
어 두
앞 서</w>
쌓 여</w>
실 금</w>
스터 디</w>
스 펙</w>
손 가락</w>
소 리
서러 운데</w>
서 인지</w>
병 들</w>
변 했</w>
버 릴까</w>
면 목</w>
멋 진</w>
머릿 속</w>
매 사</w>
맡 겨</w>
망 감</w>
들어 야</w>
돌 렸</w>
느 냐고</w>
내 심</w>
내 리</w>
그 제</w>
그 거</w>
고 소</w>
경 색</w>
건 물</w>
흥 미</w>
회 비</w>
혼 수</w>
형 제</w>
학 여행</w>
학 비</w>
타 일</w>
카 톡</w>
칠 까</w>
친 해질</w>
진 다는</w>
지 쳐서</w>
증 거</w>
젯 밤</w>
정 확</w>
정 해</w>
전 염병</w>
전 문
일 부</w>
이러 스</w>
이 래</w>
의 고사</w>
우 자</w>
요 실금</w>
염 려</w>
어 젯밤</w>
앞 날</w>
알려 준</w>
신 용</w>
스 타일</w>
수 학여행</w>
소 홀
선 뜻</w>
생 길까</w>
빼 놓</w>
부 양</w>
보 장</w>
보 살
벗 어날</w>
배 우자</w>
바 이러스</w>
못 난</w>
모 의고사</w>
모 여서</w>
말 리</w>
뚝 뚝</w>
떠 넘기</w>
때 로</w>
들 켰</w>
둥 이</w>
둘 째</w>
돌아 왔</w>
돌아 다니</w>
데려 다</w>
대 학생</w>
단 계</w>
남 동생</w>
나타 나</w>
꼼 꼼</w>
깜 깜</w>
경 찰
결 핵</w>
거 부</w>
갈 등</w>
간 다는</w>
가벼 운</w>
허 탈</w>
허 망</w>
했 는데도</w>
한 다니까</w>
하 도</w>
피 로</w>
트 북</w>
컨 디션</w>
커 지</w>
준 대</w>
주 로</w>
주 눅</w>
졸 중</w>
졸 업
제 때</w>
저 곳</w>
자 부</w>
이 크</w>
으 로서</w>
유 행</w>
연 기</w>
약 한</w>
안쓰 러워</w>
아이 돌</w>
아 부</w>
쓸 데
싸 워</w>
신 다고</w>
시 달리</w>
수 영</w>
소홀 히</w>
성 장</w>
서 부터</w>
상 했</w>
상 관</w>
살 까</w>
사 표</w>
미 술</w>
멋 대로</w>
매 주</w>
린 다고</w>
떠 난</w>
돌아 보</w>
다 더니</w>
뇌 졸중</w>
노 트북</w>
넘어 졌</w>
내 게
기 쁨</w>
공 고</w>
고마 워서</w>
간 병</w>
한 국</w>
한 계</w>
학 벌</w>
폐 지</w>
펑 펑</w>
틀 어
틀 렸</w>
축 구</w>
총 각</w>
챙 길</w>
집 착</w>
준 다는</w>
주 가</w>
전문 가</w>
일어 났</w>
이 민</w>
온 갖</w>
예 방</w>
여 성</w>
엊 그제</w>
쓸 모</w>
실 기</w>
시 원</w>
시 름</w>
수군 거리</w>
수 고</w>
설 마</w>
살 날</w>
사 귈</w>
불 려</w>
불 구</w>
방 향</w>
바 꿔
밀 려</w>
미 뤄</w>
무거 워</w>
무 뚝뚝</w>
러 워서</w>
라 인</w>
뜩 이나</w>
등 록</w>
들 으니까</w>
둬 서</w>
동 반</w>
대 들</w>
다 양</w>
다 던</w>
느껴 졌</w>
느 라고</w>
놀 림</w>
내 성</w>
나 올까</w>
끊 겼</w>
깜 빡
기뻐 하</w>
광 고</w>
고 작</w>
고 과</w>
걸 릴까</w>
간 식</w>
가 수</w>
가 뜩이나</w>
휴 일</w>
효 율</w>
했 으면</w>
한 테
한테 서</w>
판 매</w>
틀 린</w>
터 놓</w>
추 가</w>
질 없</w>
지 금
지금 껏</w>
줄어 드</w>
좋아 해서</w>
정 했</w>
전 해</w>
전 원
잔 고</w>
자 신감</w>
으 셨</w>
으 라는</w>
유 부
요 법</w>
올 렸</w>
역 할</w>
여 직</w>
여 름</w>
에 스</w>
얘 길</w>
아 깝</w>
실 망감</w>
수 준</w>
수 습</w>
비 상금</w>
불 면
불면 증</w>
부 질없</w>
병 상</w>
방 귀</w>
반 말</w>
밀 리</w>
모 여</w>
막 혀</w>
마 트</w>
마 라
마라 톤</w>
들어 와</w>
들 키</w>
뒤 통
동성 애자</w>
돌려 주</w>
돌려 받</w>
더 러</w>
달 려
늘 어
놨 는데</w>
날 지</w>
난 처</w>
나 머
나 눌</w>
나 간</w>
꼬 박</w>
깨 달</w>
깜 빡</w>
금 리</w>
근 육</w>
귀 농</w>
구 직</w>
고 독</w>
가 깝</w>
후 임</w>
화 풀이</w>
헤어 져서</w>
했 어야</w>
해 온</w>
파 일</w>
투 정</w>
태어 난</w>
클 럽</w>
캄 캄</w>
책임 지</w>
차 장</w>
지 루</w>
즈 음</w>
좋아 해</w>
조 원</w>
졌 었</w>
정 밀</w>
접 근</w>
잠 적</w>
임 기</w>
이겨 낼</w>
우 승</w>
외로 울</w>
예 순</w>
쓰레 기</w>
심 했</w>
심 사</w>
신 난다</w>
스 레</w>
손 실</w>
소 음</w>
세 계</w>
버 거
발 목</w>
반 려</w>
믿 음직</w>
무거 운</w>
면 담</w>
메 이트</w>
먹 여</w>
망 하</w>
말 투</w>
마 찬
룸 메이트</w>
뒤 처
동 갑</w>
도망 갔</w>
눈 빛</w>
농 담</w>
녹 내장</w>
넘어 져서</w>
넘 겼</w>
내 주</w>
내 색</w>
나머 지</w>
꿈 꾸</w>
기 미</w>
기 념</w>
규 칙</w>
공 격</w>
고 칠</w>
결 심</w>
견 딜</w>
겨 울</w>
걸 어도</w>
가져 야</w>
가로 채</w>
현 금</w>
해 버렸</w>
한 시름</w>
하나 하나</w>
하 소
하소 연</w>
트 폰</w>
툭 하면</w>
테 이션</w>
태 껏</w>
코 앞</w>
취 해</w>
챙 겼</w>
줘 야지</w>
주 민</w>
주 머니</w>
제 발</w>
절 약</w>
쟁 이</w>
재 활</w>
장 난감</w>
자 동
잃어 버린</w>
인 해서</w>
이 곳
이곳 저곳</w>
은 근</w>
워 진</w>
우 린</w>
예 비</w>
여 태껏</w>
약 해서</w>
아닐 지</w>
아 까워</w>
신 문</w>
시 킬</w>
스마 트폰</w>
스 트</w>
소 비</w>
생 명</w>
비 염</w>
불 평</w>
보 낸</w>
병 행</w>
발 전</w>
반 갑</w>
밀 렸</w>
미 팅</w>
미 국</w>
문 서</w>
못 나</w>
몰 라도</w>
모른 다는</w>
모 전</w>
모 시</w>
명 의</w>
떠 오르</w>
떠 들</w>
떠 날</w>
때 려서</w>
때 려</w>
드라 마</w>
뒤통 수</w>
된 다니</w>
더 욱
더 라니까</w>
대 할</w>
대 견</w>
다 지만</w>
다 던데</w>
놀 이
노 릇</w>
남겨 진</w>
끝 낼</w>
끝 난</w>
기 울
금 융</w>
그만 둬야</w>
관 해</w>
공 기</w>
경찰 서</w>
거 짓</w>
강 제</w>
가져 다</w>
가져 갔</w>
가르 치</w>
흘 리</w>
헌 신</w>
행 평가</w>
학 자금</w>
학 습</w>
평 균</w>
투 명</w>
테 롤</w>
콜 레스
콜레스 테롤</w>
치 과</w>
취 하</w>
철 저히</w>
차 였</w>
차 림</w>
차 도</w>
직 속</w>
지나 치</w>
지 기</w>
즐 길</w>
중 반</w>
제 한</w>
제 외</w>
저 씨</w>
재미 없</w>
작 정</w>
자동 차</w>
인 제</w>
이 벤
이벤 트</w>
이 렇</w>
이 럴까</w>
이 곳</w>
운 동
오 래
었 었</w>
어린 데</w>
어 쩜</w>
어 떠</w>
아 저씨</w>
아 등
아등 바
아등바 등</w>
아 껴
신 기</w>
식 이</w>
시 한
시 집</w>
시 각</w>
수 행평가</w>
소 문
성 사</w>
설 거지</w>
선 고</w>
살 갑</w>
사 항</w>
뻔 히</w>
비 만</w>
불안 감</w>
보 일까</w>
별 것</w>
반 항</w>
반 가
바 빴</w>
미 혼</w>
명 단</w>
맞춰 서</w>
망설 여</w>
마찬 가지</w>
마 셔서</w>
들 킬까</w>
들 려</w>
더욱 더</w>
달 하</w>
달 째</w>
달 라지</w>
노 인
노 래
넘어 갔</w>
기 부</w>
구 석</w>
교 통</w>
관 한</w>
건 네</w>
감 각</w>
가 득</w>
휴 식</w>
훔 쳤</w>
효 도</w>
화 장</w>
혼 날까</w>
호 전</w>
혈 당</w>
해 선</w>
프 레
폐 렴</w>
택 시</w>
취 향</w>
청 첩
청첩 장</w>
참 담</w>
차 마</w>
진 다</w>
직 급</w>
제 주도</w>
제 자리</w>
정 체</w>
정 일</w>
장 인</w>
장 래</w>
잘 릴</w>
일어 날</w>
일 등</w>
일 거리</w>
인 계</w>
이제 껏</w>
이 룰</w>
이 끌</w>
유 증</w>
윗 집</w>
울 적</w>
욕 하</w>
외 제</w>
엄 두</w>
어울 려</w>
어느 새</w>
어 들</w>
애 교</w>
쓸데 없</w>
심 근</w>
시한 부</w>
세 히</w>
성 화</w>
살 리</w>
분 담</w>
부 서
배 드
배드 민
배드민 턴</w>
배 달</w>
물 가</w>
무너 지</w>
무 료</w>
모른 다고</w>
맞 이</w>
망 증</w>
리 어</w>
려 니까</w>
떨어 질까</w>
들 여
동 시</w>
독 서</w>
데려 가</w>
달 래</w>
내 신</w>
내 렸</w>
났 었</w>
날 려</w>
까 다
길 거리</w>
기 초</w>
기 억
기 관
그 분</w>
구 입</w>
공 모전</w>
계 셔서</w>
건 망증</w>
거 려서</w>
한 창</w>
한 약</w>
타 박</w>
커 플</w>
치 레</w>
첫 째</w>
챙 겨
찾아 왔</w>
주 장</w>
주 동
주동 자</w>
족 력</w>
조 기</w>
정 해야</w>
정 성</w>
저 렇</w>
장 면</w>
자 취</w>
잊어 버리</w>
원 했</w>
요 즈음</w>
온 라인</w>
예 정일</w>
여 겨</w>
업 자</w>
어 딜</w>
양 이</w>
얄 미워</w>
약 점</w>
아들 놈</w>
쓰 여서</w>
신 저</w>
시 험
슬 픔</w>
수 시</w>
수 당</w>
속 이</w>
상관 없</w>
살 짝</w>
빌 릴</w>
비 리</w>
부 려서</w>
복 용</w>
보험 료</w>
변 경</w>
버 틸</w>
밀 린</w>
물려 받</w>
문 득</w>
문 과</w>
무 게</w>
목 적</w>
모 을</w>
메 신저</w>
멋 있</w>
만 남</w>
리 사</w>
라 지만</w>
들 이</w>
드 린</w>
뒤 늦</w>
돌 이
독 촉</w>
대 장암</w>
대 꾸</w>
당 자</w>
담 당자</w>
다닌 다고</w>
놓 여</w>
놀 려</w>
노인 회</w>
끼 치</w>
그래 야</w>
공 채</w>
고 양이</w>
고 시</w>
계약 직</w>
걸 어
개 선</w>
개 발</w>
간 대</w>
가 족력</w>
가 리</w>
희 롱</w>
후 유증</w>
확 히</w>
형 편
하 산</w>
프레 젠
프레젠 테이션</w>
퍼 뜨
탐 내</w>
케 이크</w>
캠 핑</w>
출 혈</w>
징 그
질 지</w>
지켜 야</w>
지 장</w>
지 방
증 세</w>
줄 여야</w>
주 부</w>
제 주</w>
전 날</w>
장 례</w>
잡 혀</w>
잠 들</w>
자 세히</w>
일 지</w>
일 일
일일 이</w>
인 맥</w>
이 웃
이 걸로</w>
응 급
으 니깐</w>
울 까</w>
왔 었</w>
완 성</w>
오 전</w>
여 생</w>
여 동생</w>
안타 깝</w>
아니 면</w>
쓰러 진</w>
쌀 쌀
쌀쌀 맞</w>
심 해진</w>
심 해져</w>
심 리</w>
식 습관</w>
슬퍼 져</w>
수 험</w>
소 변</w>
성 희롱</w>
서글 프</w>
서 실</w>
서 라도</w>
상 견
상견 례</w>
사라 져서</w>
사 치</w>
사 별</w>
붙 잡</w>
별 다른</w>
배 울</w>
모 욕</w>
멸 감</w>
망 해서</w>
망 치</w>
마 실</w>
대 응</w>
당 한다는</w>
단 짝</w>
다가 와</w>
다 나</w>
는 대</w>
는 구나</w>
는 가</w>
느 낄</w>
누 락</w>
뇌 출혈</w>
놀 려서</w>
내 놓</w>
낯 선</w>
낙 하산</w>
나 인데</w>
기 구</w>
급 히</w>
그러 게</w>
구 했</w>
공 들
공 간</w>
고 자</w>
경 비</w>
겠 다</w>
가 사</w>
가 라
흡 연</w>
휠 체
휠체 어</w>
형편 없</w>
협 박</w>
합 리</w>
한 텐</w>
피 아
풍 족</w>
포 함</w>
편 애</w>
퍼 센
퍼센 트</w>
투 석</w>
침 대</w>
치 질</w>
출 퇴근</w>
쳐 도</w>
체 크</w>
체 육
처 분</w>
직 장인</w>
지 급</w>
주 고
주고 받</w>
조 치</w>
작 가</w>
입 원비</w>
인 수
인수 인계</w>
이 스</w>
의 논</w>
의 금</w>
유 치
원 만</w>
워 크</w>
움직 일</w>
외 박</w>
올 지</w>
온 통</w>
여 간</w>
에 다</w>
어 진</w>
어 르
어르 신</w>
어 떨</w>
양 가</w>
안 마</w>
아 래</w>
스 타</w>
숨 겨
소 득</w>
성 향</w>
성 별</w>
설 계</w>
상 위</w>
살아 오</w>
빨 개
빠 른</w>
불 법</w>
불 리</w>
부 지
보인 다고</w>
발 언</w>
미 뤄
물어 볼</w>
몸 살</w>
메 뉴</w>
망 칠</w>
망 가
말 썽</w>
막내 딸</w>
마 신</w>
래 서</w>
떠 넘
들어 올</w>
둘 러
둘 까</w>
되 찾</w>
담 보</w>
단 어</w>
닦 달</w>
다가 와서</w>
는 커녕</w>
누군 지</w>
누 명</w>
놀 렸</w>
노 여
내게 는</w>
내 버렸</w>
나 을</w>
꾸 중</w>
기 존</w>
근 길</w>
그 걸로</w>
귀 여
국 가</w>
교 무실</w>
교 류</w>
괴 로운</w>
관 두</w>
공 허</w>
공 장</w>
공 유</w>
공 개</w>
결 제</w>
게 이
걸 어서</w>
강 의</w>
힘 내</w>
훔 치</w>
후 반</w>
환 멸감</w>
확 진</w>
화 분</w>
화 낼</w>
협 상</w>
했 어도</w>
해 야
한 다며</w>
피 스</w>
플 란
플란 트</w>
프 로</w>
풀 려서</w>
폭 락</w>
평 일</w>
투 리</w>
체 계</w>
첫 날</w>
차 지</w>
쫓 아
집 어
진 절
진절 머리</w>
지 목</w>
지 겹</w>
중 독</w>
좀 처럼</w>
졸업 식</w>
조 리</w>
정 책</w>
적 어도</w>
저 지르</w>
저 리</w>
입 대</w>
임 금</w>
일 으
이 르</w>
이 날</w>
을 걸</w>
으 셨
월 요일</w>
요 통</w>
옮 겼</w>
옮 겨</w>
예 금</w>
염 세</w>
여 름
아버 님</w>
신 데</w>
시켜 야</w>
시 스
시스 템</w>
숨 겨</w>
순 서</w>
성 형</w>
보 약</w>
병 인</w>
병 문</w>
변 한</w>
범 인</w>
벌 레</w>
버 렸
배 고
반 기</w>
박 꼬박</w>
바 르</w>
바 다</w>
미 련</w>
무 심</w>
무 산</w>
무 겁</w>
망 쳐서</w>
마주 쳤</w>
랜 드</w>
라 우
뛰 어나</w>
들어 줄</w>
드 려</w>
뒷 말</w>
동 업</w>
동 물</w>
돌아 갈</w>
대 장</w>
달라 진</w>
다 짐</w>
다 기</w>
느껴 서</w>
느 니</w>
놀 이</w>
남 겨</w>
나 눠
꾸 미</w>
꼬 박꼬박</w>
꺼 리</w>
꺼 냈</w>
기 준</w>
급 해</w>
고 용</w>
계 실</w>
계 셔</w>
결 재</w>
거 슬
거 동</w>
간 병인</w>
활 력</w>
화 가</w>
헛 소문</w>
헛 살</w>
해 코
해코 지</w>
해 줘도</w>
할 래</w>
한 쪽</w>
하 교</w>
하 객</w>
피아 노</w>
피 싱</w>
플 까</w>
틀 니</w>
투 성
투성 이</w>
토 할</w>
터 리</w>
코 올</w>
충 돌</w>
채 우</w>
차 질</w>
질 러</w>
주 름</w>
제 품</w>
제 력</w>
정 한</w>
정 정</w>
저 질렀</w>
장 가</w>
입 자</w>
일 날</w>
인 공</w>
이 모</w>
이 따
의 료</w>
응급 실</w>
은 사</w>
으 려면</w>
으 나</w>
유부 남</w>
유 전</w>
외 근</w>
옷 차림</w>
오 후</w>
연 락
언 성</w>
어떨 지</w>
어 졌</w>
약 하</w>
알 코올</w>
아 까
쑤 시</w>
숨 겼</w>
수 행</w>
수 상</w>
소개 서</w>
셔 야</w>
세 워</w>
성가 셔</w>
서 비
서비 스</w>
산 다는</w>
사 이
쁜 지</w>
빼 앗</w>
부 렸</w>
벅 차</w>
반 지</w>
바 른</w>
바 랐</w>
바 뀐</w>
바 꿨</w>
바 꿀</w>
미 리
미리 미리</w>
물 리</w>
물 거
무 례</w>
몸 매</w>
몰 아
몰 려
모 로</w>
면 허</w>
먹 이</w>
만 지</w>
막 혀서</w>
마음 먹</w>
마음 고생</w>
마 주</w>
릴 지</w>
랄 까</w>
라 더니</w>
떠 올라</w>
디 자
든 가</w>
드 러
돼 지</w>
독 서실</w>
더 듬</w>
다 더라</w>
놀 란</w>
노래 방</w>
노 름</w>
낯 설</w>
난 다는</w>
끼 워</w>
끝 냈</w>
기다 려야</w>
그 치</w>
그 날</w>
교 회</w>
과 하</w>
골 치</w>
거 실</w>
강 도</w>
갑작 스러운</w>
가 발</w>
가 려</w>
회 원</w>
화장 품</w>
호 자</w>
해 지</w>
해 봐도</w>
학 금</w>
피 워</w>
평 온</w>
토 익</w>
콘 서
콘서 트</w>
카 락</w>
충 고</w>
청 춘</w>
채 팅</w>
직 전</w>
지 불</w>
지 나갔</w>
줄 여</w>
정 확히</w>
전 증</w>
전 세금</w>
적 당</w>
재 료</w>
장 학금</w>
장 고</w>
자 제</w>
자 상</w>
인 한</w>
인 력</w>
이래 서</w>
이 장</w>
이 뤄
은 커녕</w>
위 치</w>
월 급
원 히</w>
울 대</w>
올라 오</w>
영 원히</w>
영 영</w>
열 정</w>
역 질</w>
여 러
여러 모로</w>
여 도</w>
여 금</w>
어 버
어 딘
야 간</w>
알아 봐</w>
안 중</w>
아 플까</w>
실 제</w>
소 극</w>
세 입자</w>
서 울대</w>
상 당히</w>
사 위</w>
사 놓</w>
빠 진</w>
비 위</w>
브 랜드</w>
불 황</w>
부러 워서</w>
보 호자</w>
보 채</w>
보 일</w>
보 이스</w>
보 복</w>
병 치레</w>
배 워야</w>
배 워</w>
방 치</w>
방 관</w>
밝 히</w>
반 영</w>
반 성</w>
물려 줄</w>
물거 품</w>
몸 무게</w>
목 숨</w>
모자 란</w>
머리 카락</w>
매 력</w>
망 정</w>
마음 껏</w>
린 다</w>
라 곤</w>
들 으려고</w>
들 떠</w>
든 다고</w>
동성 애</w>
도 망</w>
데려 왔</w>
대 기</w>
다 발</w>
다 를</w>
다 간</w>
는 다니</w>
노 동</w>
냐 면서</w>
냉 장고</w>
낼 지</w>
내 외</w>
남 기</w>
날 씬</w>
날 리</w>
나아 졌</w>
나 았</w>
나 빠서</w>
깨 끗</w>
기 통</w>
기 복</w>
그만 둘</w>
그 곳</w>
권 하</w>
구 역질</w>
괜 한</w>
고 개</w>
걸 음</w>
건 강
갑 갑</w>
감 시</w>
가 림</w>
확 률</w>
화 점</w>
화 려</w>
혼 주</w>
행 기</w>
해 져야</w>
합 의</w>
피 부
폐 경</w>
파 악</w>
트 라우
트라우 마</w>
텃 세</w>
턴 트</w>
터 져</w>
태어 날</w>
타 지</w>
타 인</w>
타 격</w>
침 침</w>
층 간</w>
쳐 야</w>
청 약</w>
참 고</w>
쫓 기</w>
쫓 겨
짜 고
짜고 짜</w>
진 실</w>
주 기</w>
종 합</w>
정 치</w>
접 촉</w>
절 대로</w>
전원 주택</w>
전 해야</w>
작 용</w>
자 영업</w>
입 맛</w>
이 간질</w>
유 능</w>
웨 딩</w>
운 가</w>
우 습</w>
요 번</w>
외 톨</w>
외 도</w>
올 린</w>
예 산</w>
연락 처</w>
연 말</w>
여름 휴가</w>
여 가</w>
어려 우</w>
어떨 까</w>
애 매</w>
암 담</w>
알 아들</w>
안 지</w>
아 졌</w>
아 요</w>
써 야겠어</w>
시 집
시 락</w>
시 계</w>
승 인</w>
슬퍼 지</w>
스 무</w>
술 집</w>
순 위</w>
수 중</w>
수 롭</w>
속 상</w>
소리 치</w>
선 임</w>
상 여금</w>
비 행기</w>
비 록</w>
불 륜</w>
불 러
분 하</w>
부 유</w>
보 도</w>
베 이터</w>
백 화점</w>
배 치</w>
반 겨</w>
박 혀</w>
바 쁠</w>
미 운</w>
뭘 까</w>
몇 몇</w>
메 일</w>
매 니
망 해버렸</w>
레 스</w>
등 교</w>
들 켜</w>
드 레스</w>
뒤처 진</w>
뒤 집어
두 근
될 까봐</w>
도 시락</w>
도 시</w>
더 미</w>
대 했</w>
대 수롭</w>
대 박</w>
대 가</w>
달라 졌</w>
달 성</w>
단 히</w>
다녀 온</w>
다 짜고짜</w>
다 루</w>
내 미</w>
나빠 진</w>
꽃 다발</w>
꼬 투리</w>
기억 력</w>
그 랬
그 간</w>
교 제</w>
괴로 웠</w>
과 자</w>
과 일</w>
공 기업</w>
고마 운지</w>
곗 돈</w>
경쟁 사</w>
결혼 식장</w>
게 임기</w>
검 토</w>
걸 이</w>
거 렸</w>
갑 상
감 축</w>
가라 앉</w>
가 을</w>
가 시</w>
흡 기</w>
후 면</w>
호 흡기</w>
호 감</w>
허 약</w>
해 질까</w>
해 뒀</w>
학 부모</w>
풀 렸</w>
폭 언</w>
튼 튼</w>
퉈 서</w>
퉁 명</w>
투 덜
토 바
토바 이</w>
택 배</w>
태 풍</w>
충 당</w>
축 복</w>
추 행</w>
채 소</w>
차 렸</w>
질 러서</w>
직 종</w>
직 서</w>
지 향</w>
지 염</w>
지 날
지날 수록</w>
즐거 웠</w>
종 목</w>
조 깅</w>
정 답</w>
절 친</w>
절 반</w>
전 자</w>
저 항</w>
저 금</w>
장 만</w>
장 난
잡 아
잘 리</w>
일 진</w>
일 억</w>
이웃 집</w>
이 룬</w>
이 런
이 란</w>
이 놈</w>
이 길</w>
위 협</w>
우 유</w>
외 국어</w>
완 벽
와 중</w>
올 릴</w>
온 대</w>
오 토바이</w>
오 류</w>
연 속</w>
여 력</w>
엄청 난</w>
얼 떨
어버 이날</w>
어려 워하</w>
어딘 가</w>
양 반</w>
알아 듣</w>
안쓰 럽</w>
쓴 다고</w>
실 업</w>
신 부</w>
신 규</w>
시험 지</w>
시 술</w>
시 국</w>
슬 플</w>
수 월</w>
수 령</w>
세 웠</w>
성 추행</w>
선 거</w>
생 일날</w>
생 긴
상 심</w>
사 지</w>
빼 앗
불 렀</w>
보살 펴</w>
병 세</w>
번 번
번 듯</w>
버렸 으면</w>
버 텨
받아들 일</w>
받아들 여</w>
반 드
반드 시</w>
밀 려서</w>
미 워서</w>
물어 볼까</w>
문제 없</w>
못 한다고</w>
모 아
모 델</w>
모 님</w>
멋 지</w>
멈 춰</w>
망 신</w>
맘 대로</w>
말 싸움</w>
마 땅
려 던</w>
뛰어 난</w>
떨 려서</w>
떠 나가</w>
때 린</w>
따 름</w>
따 라서</w>
뒤 쳐
돌아 와서</w>
던 가</w>
답 안지</w>
담 화</w>
단 점</w>
다 퉈서</w>
다 툰</w>
다 보</w>
능 률</w>
늙 은이</w>
늘 어놓</w>
눈 치
높 이</w>
놀이 공원</w>
노 리</w>
너무 너무</w>
내려 갔</w>
납 부</w>
날아 가</w>
나눠 서</w>
나 온다고</w>
끼 어들</w>
깔 끔</w>
기관 지염</w>
기 에</w>
그 이</w>
귀여 운</w>
구 체</w>
교 사</w>
괴로 워서</w>
고 정</w>
계 사</w>
계 발</w>
경쟁 자</w>
경 제력</w>
경 영</w>
게 으
가져 왔</w>
희 망
흐 르</w>
활 용</w>
했 을까</w>
피 했</w>
풀 려</w>
평 범</w>
편 해서</w>
편 의
편의 점</w>
튜 브</w>
퇴 임</w>
토 막</w>
턱 없이</w>
터 지</w>
큰 딸</w>
쾌 히</w>
치료 제</w>
치 관</w>
충 원</w>
출 발</w>
초 반</w>
초 등
질 책</w>
질 수록</w>
지 저
지저 분</w>
준 다</w>
죽 이</w>
죄 다</w>
종 류</w>
제 자</w>
제 시</w>
정 해진</w>
정 거리</w>
전 원</w>
저 럭</w>
자 란</w>
입 양</w>
입 덧</w>
일어 난</w>
이 야</w>
이 브</w>
이 겼</w>
의 대</w>
으 로부터</w>
으 려는</w>
유 튜브</w>
유 리</w>
위 해선</w>
월급 날</w>
워 도</w>
용 품</w>
욕 설</w>
외 부</w>
온 전히</w>
오 른</w>
어 질</w>
약 해졌</w>
약 물</w>
액 수</w>
애 쓰</w>
앞 둔</w>
안 서</w>
악 성</w>
아파 지</w>
아 랫
쓰레 기통</w>
쓰러 질</w>
쌓 였</w>
실 지</w>
신 지</w>
식 탁</w>
시 원
시 누
시누 이</w>
스 카
슈 퍼</w>
수 면</w>
성 질</w>
선 정</w>
선 수</w>
서 히</w>
서 서히</w>
서 랍</w>
생 리</w>
상 한</w>
삼 촌</w>
사 태</w>
사 직서</w>
뺏 기</w>
빼 먹</w>
빌려 간</w>
빈 곤</w>
불 량</w>
부 작용</w>
보 호</w>
보 증
번번 이</w>
번 에</w>
버거 워</w>
배 정</w>
배 웠</w>
바 닥
밀 려
민 폐</w>
미 움</w>
무서 웠어</w>
무 작정</w>
모 범</w>
모 레</w>
명 예</w>
명 문</w>
먼 지</w>
맥 주</w>
막 염</w>
마땅 히</w>
마 셔</w>
럭 저럭</w>
똑 똑</w>
떠 날까</w>
때 려
따라 잡</w>
따돌 린</w>
들 려서</w>
드라 이브</w>
뒷 담화</w>
뒤 집</w>
동 의</w>
돌이 켜</w>
당 선</w>
단 다</w>
다 만</w>
다 는군</w>
는 걸</w>
놔 야</w>
노 약</w>
노 안</w>
노 망</w>
낸 다고</w>
내려 오</w>
내 버려</w>
납 품</w>
낚 시</w>
나 와야</w>
나 눴</w>
끊 겨서</w>
꾸 짖</w>
꼼 짝</w>
까 진</w>
기울 여</w>
급 격
급격 히</w>
그 쪽</w>
그 럭저럭</w>
교 과
교과 서</w>
과 중</w>
공 지</w>
공 동</w>
고 발</w>
고 르</w>
고 려</w>
고 급</w>
걱 정거리</w>
가 치관</w>
가 출</w>
가 식</w>
희망 퇴직</w>
흡 연
흡연 자</w>
흔 쾌히</w>
휴 학</w>
훌 륭</w>
횡 령</w>
활 발</w>
홍 삼</w>
혼 집</w>
헷갈 리</w>
해 할</w>
해 소</w>
해 놨</w>
할 걸</w>
한 꺼
한꺼 번에</w>
하 마
하마 터
하마터 면</w>
편 했</w>
편 찮</w>
편 안
편안 히</w>
파 산</w>
틀 리</w>
토 록</w>
테 스</w>
터 무
터무 니
켜 서</w>
케 팅</w>
카 카
친 군데</w>
치 이</w>
치 가</w>
초등 학생</w>
책임 져야</w>
채 워</w>
차 갑</w>
질 투
진 상</w>
지나 쳤</w>
지 친</w>
지 만
지만 은</w>
지 람</w>
중 지</w>
준 다는데</w>
정 직</w>
정 자</w>
정 산</w>
절 히</w>
적 적</w>
적 자</w>
저 혈압</w>
장 거리</w>
잣 집</w>
잘 나</w>
임 용</w>
일 흔</w>
인 스
인스 턴트</w>
의 존</w>
음 주</w>
음 료
음료 수</w>
유치 원</w>
위 주</w>
위 내시경</w>
요 리사</w>
왜 냐
완 주</w>
예 식장</w>
영 정</w>
여 섯</w>
엘 리
에 너
에너 지</w>
없 애</w>
어울 릴</w>
어린 애</w>
어 먹</w>
어 다</w>
양 심</w>
야 식</w>
야 속</w>
압 류</w>
아 픈
아 마
쌍 둥이</w>
실 은</w>
실 려</w>
신 혼집</w>
시 로</w>
시 달
승 낙</w>
슬 쩍</w>
수 시로</w>
수 발</w>
수 막염</w>
속 였</w>
소 소</w>
성 과
성과 급</w>
서 툴
새 워</w>
상 쾌</w>
상 식</w>
상 승</w>
살아 갈지</w>
빌려 줄</w>
빈 자리</w>
비 결</w>
붙 이</w>
부 잣집</w>
부 상</w>
본 다고</w>
보증 금</w>
보 조</w>
보 수</w>
병 동</w>
변 호사</w>
변 기</w>
범 죄</w>
바꿔 서</w>
바 쳤</w>
바 지</w>
바 깥</w>
미 처</w>
미 끄
물어 봐도</w>
무 얼</w>
무 급</w>
몽 땅</w>
모 자</w>
모 아야</w>
멍 청</w>
망 쳐</w>
만 사</w>
마 케팅</w>
마 쳤</w>
떠넘 겨서</w>
따라 다니</w>
따 끔</w>
디자 인</w>
등 수</w>
두 르</w>
데 뷔</w>
덩 어리</w>
더 군
더군 다나</w>
대 상
당 일</w>
답 변</w>
단 지</w>
늦 둥이</w>
누 워서</w>
누 리</w>
뇌 종양</w>
놓 쳤</w>
노 산</w>
났 으면</w>
난 동</w>
나 날</w>
끊 기</w>
꾸 지람</w>
기 증</w>
기 르</w>
기 능</w>
기 기</w>
근 력</w>
국 내</w>
구 해서</w>
구 속</w>
구 멍</w>
과 로</w>
과 도</w>
곤 두
게이 머</w>
개 념</w>
간 다</w>
가 망</w>
가 담</w>
화 났</w>
혼 난</w>
호 흡</w>
헷갈 려</w>
허 덕
해 서인지</w>
해 서라도</w>
합 격
한 다는데</w>
하 찮</w>
폭 발</w>
평 상
평상 시</w>
파 서</w>
틀어 박혀</w>
틀 려서</w>
트 러
툴 툴
털 터리</w>
털 어
턴 가</w>
태 산</w>
태 기</w>
타 민</w>
키 워야</w>
코 골
코골 이</w>
친 해진</w>
친 해서</w>
친 목</w>
치 러</w>
최 악</w>
쳐다 봐서</w>
철 수</w>
척 척</w>
처 남</w>
처 가</w>
채 점</w>
참 으로</w>
참 으</w>
참 가</w>
착 용</w>
차 인데</w>
차 분</w>
차 린</w>
쪽 지</w>
집 중
집중 력</w>
질투 심</w>
지 중지</w>
지 연</w>
지 식</w>
중 풍</w>
중 단</w>
주 체</w>
주 임</w>
졸 였</w>
조 퇴</w>
조 바
조바 심</w>
정신 없</w>
젊 음</w>
절 제</w>
전 이</w>
전 망</w>
적 어지</w>
저 귀</w>
자 석</w>
일 반</w>
이따 금</w>
이 중</w>
이 어</w>
이 너</w>
이 과</w>
의 치</w>
으 려나</w>
윗 사람</w>
웠 을</w>
원 해서</w>
온 다</w>
예 고</w>
열 리</w>
연 장</w>
연 수</w>
연 세</w>
연 극</w>
여 행
여 쭤</w>
여 의치</w>
엘리 베이터</w>
에 이</w>
엉 뚱</w>
엄 하</w>
언젠 간</w>
어린 아이</w>
어 휴</w>
야 단
애 지중지</w>
아마 도</w>
아껴 서</w>
아 름
아 냥
실 천</w>
시 세</w>
시 설</w>
시 고</w>
스러 워져</w>
순 히</w>
손 목</w>
소 름</w>
생 겼
생 겨
상 환</w>
상 속</w>
살 이</w>
산 소</w>
사 돈
빨 래</w>
빈 혈</w>
빈 털터리</w>
비 타민</w>
비 아냥
분 배</w>
부러 졌</w>
부 턴가</w>
복 도</w>
변 명</w>
베 풀</w>
범 위</w>
배 운</w>
배 경</w>
밤 낮</w>
발 휘</w>
문제 집</w>
몰라 라</w>
모아 뒀</w>
모 처럼</w>
매니 저</w>
매 달
망설 이</w>
말 대꾸</w>
만 점</w>
르 기</w>
로 워서</w>
렸 었</w>
떠 올라서</w>
때 릴</w>
따라 갈</w>
따 랐</w>
들 킨</w>
두려 워서</w>
동 결</w>
동 거</w>
돌아 와</w>
돌 봐야</w>
도 우
더 럽</w>
댄 스</w>
대 중
단 호</w>
다녀 도</w>
니 스</w>
는 다면</w>
는 구먼</w>
느껴 질</w>
놀 림
넘 치</w>
내 지</w>
날 카
난 히</w>
낙 이</w>
나타 났</w>
나 올지</w>
끼 니</w>
끝 났</w>
끊 긴</w>
꼼 히</w>
꼼 꼼히</w>
깨 어나</w>
깜빡 하</w>
깁 스</w>
기 저귀</w>
기 도</w>
기 댈</w>
기 껏</w>
그만 둘까</w>
권 태기</w>
관 리
관 계
고 모</w>
계 획
계 신</w>
경 조사</w>
겹 쳐서</w>
게 을
겉 도</w>
건 의</w>
강 사</w>
간 경
가져 오</w>
가로 챘</w>
가 치</w>
가 운</w>
가 계</w>
힘든 지</w>
희 생
흘 러
횟 수</w>
환 자
환자 실</w>
환 불</w>
화 끈</w>
호 텔</w>
혈 병</w>
헬 스
헬스 클럽</w>
헤어 질</w>
해 라</w>
합격 자</w>
할 텐데</w>
한 평생</w>
한 다네</w>
하루 빨리</w>
필 라
필라 테스</w>
풀 릴</w>
표 시</w>
팀 워크</w>
트러 블</w>
투 기</w>
통 지</w>
토 랑</w>
키 워
커 질</w>
카카 오
카카오 톡</w>
칠 순</w>
치 르</w>
취 방</w>
취 득</w>
출 근길</w>
체 질</w>
철 저</w>
찾아 뵙</w>
찾아 갔</w>
쩐 지</w>
짐 없이</w>
진 찰</w>
지켜 서</w>
지 컬</w>
지 옥</w>
지 라</w>
즐거 움</w>
중 히</w>
중 심</w>
주 운전</w>
종 교</w>
졌 어</w>
정 학</w>
정 당</w>
접 수</w>
전 전
전전 긍
전전긍 긍</w>
적 용</w>
저 조</w>
저 래</w>
재 무</w>
자 취방</w>
자 원</w>
자 면</w>
잊어 버렸</w>
임 종</w>
이 뻐</w>
이 미
이미 지</w>
이 달</w>
음 주운전</w>
음 성</w>
유 럽</w>
유 난</w>
위 자료</w>
원 해</w>
운동 장</w>
운 명</w>
욕 했</w>
욕 탕</w>
요 가</w>
완 쾌</w>
옮 긴</w>
올라 갔</w>
오 진</w>
오 디션</w>
오 가</w>
예 물</w>
영 희</w>
영 순</w>
염 증</w>
염 려
염려 증</w>
여 럿</w>
업 계</w>
어려 워졌</w>
어 쩐지</w>
어 리
야 단</w>
알 려야</w>
알 레
안 경</w>
아 흔</w>
씀 이</w>
씀 씀이</w>
실 장</w>
신 중</w>
시 킬까</w>
시 어머님</w>
순 환</w>
소 일거리</w>
세 워야</w>
세 먼지</w>
선 호</w>
서러 워서</w>
샤 워</w>
생 산</w>
상 담
상 가</w>
살 펴
빠 짐없이</w>
빠 질</w>
빠 져
빌려 갔</w>
비 우</w>
부지 런</w>
부서 장</w>
부서 원</w>
부러 워
변 해</w>
백 혈병</w>
배 제</w>
배 워서</w>
바 쳐</w>
바 꾼</w>
미끄 러
미 세먼지</w>
뮤 지컬</w>
문 병</w>
무 력</w>
목 욕탕</w>
모자 랄</w>
모 인</w>
면 박</w>
매 달리</w>
망 한</w>
말 렸</w>
만 에</w>
만 날까</w>
막내 아들</w>
마 이
리 원</w>
를 까</w>
려 구</w>
레스 토랑</w>
러 운</w>
러 야</w>
뜬 금
똑 바로</w>
떳 떳</w>
떠 올리</w>
떠 나
때려 치우</w>
따돌 릴</w>
들 켜서</w>
든 다는</w>
두 통</w>
동 성</w>
돈 독</w>
도망 치</w>
도 맡</w>
도 리</w>
도 로</w>
더 라
더 니
더니 만</w>
대상 자</w>
답 안</w>
다 신</w>
다 더군</w>
다 그치</w>
는 다</w>
느 낀</w>
놓 친</w>
놓 치</w>
넘 쳐</w>
내려 놓</w>
내 밀</w>
내 려</w>
날아 갔</w>
나 잇
나 약</w>
끓 여</w>
꾸 리</w>
꾀 병</w>
꼴 찌</w>
꼬 리</w>
기 피</w>
근 사</w>
극 단</w>
그 립</w>
그 럴
규 모</w>
권 고</w>
국 인</w>
교 내</w>
괴로 울</w>
계 주</w>
건 드리</w>
거슬 려</w>
갑작 스러워서</w>
감 염</w>
감 격</w>
갈 아
간 만에</w>
각 종</w>
가 실</w>
후 원</w>
회 피</w>
황 혼</w>
확 정</w>
홍 보</w>
허덕 이</w>
핵 심</w>
해야 겠지</w>
해 방</w>
해 결
해결 책</w>
합 병</w>
한 대서</w>
학 력</w>
학 대</w>
하 반기</w>
필 수</w>
평 판</w>
퍼 트
패 턴</w>
팍 팍</w>
튜 버</w>
통 제</w>
타 고
킨 십</w>
크 기</w>
치 여서</w>
치 마</w>
치 기</w>
췌 장암</w>
촬 영</w>
체 험</w>
청 할</w>
처 구
책임 감</w>
채 택</w>
찾아 올</w>
찾아 볼</w>
창 고</w>
징그 럽</w>
징그 러워</w>
질 렸</w>
진 도</w>
직 위</w>
지방 대</w>
지방 간</w>
지 원서</w>
지 우</w>
지 어서</w>
지 겨
증 자</w>
줬 었</w>
중 환자실</w>
주 저
주저 앉</w>
주 먹</w>
주 년</w>
좋아 할</w>
조 율</w>
조 르</w>
제 의</w>
제 안서</w>
제 공</w>
정신 없이</w>
정 지</w>
정 성
정성 껏</w>
점 차</w>
점 검</w>
전원 생활</w>
전 역</w>
전 념</w>
적 절</w>
장 수</w>
장 병</w>
장 모님</w>
장 가
잡 일</w>
잘 생긴</w>
자 율</w>
자 랐</w>
자 동</w>
자 도</w>
자 극</w>
자 궁</w>
일 요일</w>
일 러</w>
인 재</w>
인 신
인신 공격</w>
인 사
인 병</w>
이 래도</w>
이 나마</w>
의 료
은 땀</w>
으 래</w>
유 출</w>
유 난히</w>
원 수</w>
웃 음
웃 긴</w>
울 컥</w>
예뻐 서</w>
예 쁨</w>
연 루</w>
역 겨
여행 지</w>
여 든</w>
에 서부터</w>
엄 격</w>
얻 어먹</w>
언 행</w>
어지 럽</w>
어두 워서</w>
어두 운</w>
어 처구
어 려</w>
어 라</w>
양 식</w>
약 해져서</w>
약 사</w>
약 국</w>
야 구</w>
알레 르기</w>
안타 까
아름 다
아껴 야</w>
아 홉</w>
아 픔</w>
아 주머니</w>
아 셨</w>
아 닐</w>
쓰 리</w>
싫어 해</w>
실 컷</w>
식 은땀</w>
시끄 러워서</w>
스 킨십</w>
순 조</w>
수 급</w>
손 잡</w>
소문 나</w>
소 질</w>
소 송</w>
성 인병</w>
설 사</w>
생겨 도</w>
새 엄마</w>
상 무</w>
상 냥</w>
산 후</w>
산 더미</w>
삭 감</w>
사 채</w>
빠 도</w>
부러 웠</w>
부딪 히</w>
부 를</w>
봤 었</w>
복 학</w>
복 습</w>
버 텨</w>
버 릇
백 신</w>
방 지</w>
방 역</w>
밤 늦</w>
반 년</w>
바 빠도</w>
밀 치</w>
미 쳐</w>
물 어야</w>
못 생겼</w>
명 상</w>
면 역
머리 숱</w>
머 신</w>
망 가진</w>
맛 없</w>
막 연</w>
막 말</w>
마이 너스</w>
마 침</w>
마 취</w>
마 찰</w>
마 당</w>
력 직</w>
레 이</w>
랐 었</w>
라 야</w>
또 한</w>
들여 다보</w>
들 이
들 으려</w>
들 려
드 려서</w>
뒷 전</w>
뒤쳐 지</w>
동 영상</w>
동 업자</w>
돌아 올</w>
돌아 갔</w>
돈 벌이</w>
독 사</w>
도 울</w>
데려 온</w>
데려 오</w>
덩 달</w>
던 져</w>
더라 구</w>
대중 교통</w>
대 형</w>
대 판</w>
달라 져서</w>
단 순히</w>
단 속</w>
닥 치</w>
다녀 올</w>
다 칠</w>
다 닐
느 려서</w>
누 굴</w>
놓 쳐서</w>
놓 이</w>
놀림 거리</w>
노 고</w>
넘어 져</w>
내 쫓</w>
내 부</w>
났 거든</w>
나온 대</w>
나아 진</w>
나 무
깨 어날</w>
까다 롭</w>
기다 릴</w>
기 증자</w>
기 세</w>
기 쁠</w>
금 요일</w>
그만 둔</w>
그래 서인지</w>
그 토록</w>
그 룹</w>
구 분</w>
관 해서</w>
관 념</w>
과 학</w>
공 사</w>
경 매</w>
경 력직</w>
견 제</w>
겠 다는</w>
강 한</w>
감 량</w>
간 염</w>
가벼 워</w>
가 짜</w>
가 정
희생 양</w>
흘 려</w>
흐 뭇</w>
흐 름</w>
휴 대</w>
후 군</w>
효 자</w>
험 한</w>
행 운</w>
해 하</w>
해 졌으면</w>
해 냈</w>
항 의</w>
합 의금</w>
할 망정</w>
한 단</w>
학 급</w>
하 얘
피 울</w>
피 드
피드 백</w>
프로 게이머</w>
폐 업</w>
폐 결핵</w>
평 화</w>
편 해진</w>
퍼뜨 리</w>
퍼 뜨렸</w>
팔 리</w>
틀 림
테 스트</w>
털어 놨</w>
턱 걸이</w>
커 져서</w>
카 네
카네 이션</w>
치 워</w>
축 의금</w>
최 신</w>
최 소
최소 한</w>
총 무</w>
촉 박</w>
체육 복</w>
체육 관</w>
철 없</w>
천 만
천만 다행</w>
챙겨 준</w>
챙 긴</w>
챙 겨서</w>
착 실히</w>
차 단</w>
차 근</w>
차 근
차근 차근</w>
찢 어지</w>
지켜 봐야</w>
지나 친</w>
지나 간</w>
지긋 하</w>
지긋 지긋하</w>
지 원
지원 자</w>
지 심</w>
지 수</w>
지 른</w>
지 기
지기 가</w>
즐 겨</w>
줄 일</w>
줄 였</w>
준 비
준비 물</w>
주 어진</w>
주 사기</w>
조 심히</w>
조 롱</w>
제 약</w>
제 멋대로</w>
정 장</w>
절 부
저 래
저래 라</w>
재 력</w>
잦 아졌</w>
장난 치</w>
장 점</w>
잡 혀서</w>
잠 수</w>
잔 액</w>
잔 병치레</w>
작 업
자격 지심</w>
자 부
자부 심</w>
자 며</w>
입 금</w>
임 없이</w>
임 대</w>
일으 키</w>
일 기</w>
인 지라</w>
이어 지</w>
이 즈</w>
이 루
이 득</w>
의 원</w>
윳 돈</w>
유 쾌</w>
위 하</w>
위 염</w>
위 안</w>
위 급</w>
원 치</w>
워 질</w>
웃음 거리</w>
움 츠
외 국인</w>
왜냐 면</w>
왕 래</w>
완벽 히</w>
옮 길</w>
올 바른</w>
올 려야</w>
올 려서</w>
오래 오래</w>
오 줌</w>
오 른
예뻐 해</w>
예 감</w>
연 휴</w>
연 고</w>
연 결</w>
여 윳돈</w>
얼떨 떨</w>
언 짢</w>
언 쟁</w>
어느 덧</w>
어 져서</w>
어 긋
양 치질</w>
야 채</w>
앞 길</w>
알 렸</w>
안 절부
악 착
아 팠
아 가
아가 씨</w>
씌 우</w>
쓰 였</w>
써 도</w>
쌓 인</w>
싸 울까</w>
심 해질까</w>
심 장병</w>
신 사</w>
시 큰
시 아버지</w>
승 무원</w>
슬 픈데</w>
스 런</w>
숫 자</w>
수 기</w>
수 군</w>
솜 씨</w>
소리 쳤</w>
소 릴</w>
센 티
성 실히</w>
설 계사</w>
서툴 러서</w>
서러 운</w>
서 야</w>
생 신</w>
생 색</w>
새 삼</w>
상관 없이</w>
살 려</w>
산 물</w>
사이 좋</w>
사라 져</w>
사돈 댁</w>
사 생활</w>
뽑 혔</w>
비 해서</w>
비 실</w>
비 서</w>
불 화</w>
부러 우</w>
부 축</w>
부 위</w>
별 생각</w>
변 증</w>
번 거</w>
버 럭</w>
방 과</w>
발 뺌</w>
받아들 여야</w>
바 탕</w>
밀 어
미 친</w>
미 용
미 뤘</w>
무 안</w>
못 한다는</w>
모 집</w>
모 였</w>
모 아도</w>
모 금</w>
매 점</w>
맡 긴</w>
맞 아</w>
말 려서</w>
막 힌</w>
마주 칠</w>
마 구</w>
려 다가</w>
러 닝</w>
뜬금 없이</w>
뜨 리</w>
뚜 렷</w>
두려 웠</w>
동 참</w>
동 서</w>
동 떨어진</w>
돌 릴</w>
도우 미</w>
도 리어</w>
당 할까봐</w>
당 한다고</w>
당 신</w>
담 사</w>
달 이</w>
다녀 와서</w>
다 독
늘어 났</w>
늘어 난</w>
늘 렸</w>
는 다니까</w>
느 린</w>
눈치 채</w>
놔 두</w>
노여 워</w>
노 크</w>
네 요</w>
넘어 지</w>
냈 었</w>
내 정자</w>
내 린</w>
낯 가림</w>
남 성</w>
난 폭</w>
난 다니까</w>
끊 임없이</w>
기다 려
기 술
그 마</w>
귀 가</w>
구 만</w>
공들 여</w>
공 경</w>
골 절</w>
곤두 서</w>
고 선</w>
고 비</w>
고 독사</w>
계획 서</w>
계약 서</w>
계 셨</w>
계 부</w>
경 치</w>
경 사</w>
결 실</w>
검 색</w>
걸어 가</w>
걸 으면</w>
걸 려도</w>
건강 식</w>
건 축</w>
건 성</w>
거 들떠</w>
갈아 입</w>
간경 변증</w>
간 절</w>
간 경</w>
가져 다
후 조
후조 리원</w>
후 원금</w>
후 기</w>
홧 김</w>
활 기</w>
화 상</w>
화 난다</w>
호 스
호스 피스</w>
호 강</w>
형 식</w>
형 성</w>
혈 액</w>
현 상</w>
허 비</w>
해 명</w>
해 당</w>
한 정</w>
피 시
피시 방</w>
프 리
풍 요</w>
펼 치</w>
편 할</w>
퍼트 리</w>
팡 이</w>
팔 자</w>
팔 려서</w>
파 킨
파킨 슨
파킨슨 병</w>
틈 틈
틀림 없</w>
툴툴 거리</w>
퇴 행</w>
퇴 근길</w>
통 쾌</w>
통 금</w>
토 요일</w>
터무니 없이</w>
터 져서</w>
탕 진</w>
타고 난</w>
타 이</w>
킬 로</w>
키 운
큰 아이</w>
크 숍</w>
크 림</w>
칸 방</w>
친 해졌</w>
친 해져서</w>
친 다</w>
춤 추</w>
춤 법</w>
체 능</w>
처 량</w>
찾아 올까</w>
창 문</w>
찬 데</w>
착 취</w>
착 오</w>
차 려
찜 찜</w>
쫓 아내</w>
집 단</w>
진 통</w>
진 솔</w>
지켜 볼</w>
증 후군</w>
즐거 울</w>
중 도</w>
중 국</w>
주 정</w>
주 선</w>
존 재
존재 감</w>
조 제</w>
제 법</w>
제 거</w>
정 해서</w>
정 반대</w>
접 어
전 립
전 기세</w>
장 구</w>
잔 심부름</w>
작 품</w>
작 아지</w>
자 르</w>
자 는데</w>
자 네</w>
잊 히</w>
잇 몸</w>
입 상</w>
인 센티
인센티 브</w>
인 성</w>
인 색</w>
인 공
이 쁘</w>
이 뤄</w>
이 랬</w>
응 대</w>
응 급</w>
유 치</w>
유 전자</w>
위 층</w>
위 장</w>
위 독</w>
웬 만</w>
워 할</w>
워 크숍</w>
움직 여</w>
우 트</w>
우 수</w>
올라 왔</w>
올 수록</w>
온 화</w>
오 락
오락 가락</w>
예 체능</w>
영 화
영 문</w>
열 불</w>
연 구</w>
역 겹</w>
여 부</w>
엠 티</w>
에 어
에 다가</w>
얼 어
얼어 붙</w>
억 장</w>
어 져</w>
어 떤
어 기</w>
양 다리</w>
야 겠다</w>
앞 집</w>
알 람</w>
알 뜰</w>
안타까 운</w>
안절부 절</w>
안 과</w>
악 담</w>
아파 하</w>
아무 거</w>
아들 딸</w>
아까 운</w>
아 낌
아 꼈</w>
심 해질</w>
심 부</w>
실 험</w>
실 행</w>
실 습</w>
실 례</w>
실 내</w>
신 났</w>
신 가</w>
식 욕</w>
시 즌</w>
시 급</w>
슬퍼 할</w>
슬퍼 졌</w>
스카 우트</w>
스러 움</w>
스 테
스 물</w>
숙 사</w>
수술 실</w>
수 저</w>
수 자</w>
수 십</w>
수 년</w>
손 대</w>
소 아
소 수자</w>
소 년
셔 도</w>
셋 집</w>
성 급</w>
섣 불리</w>
선 후배</w>
서 툴</w>
살 찌</w>
살 릴</w>
산 후조리원</w>
산 재</w>
사라 진</w>
사 전</w>
사 자</w>
사 이트</w>
사 유</w>
사 무
뺏 겼</w>
빨개 졌</w>
비아냥 대</w>
비 켜</w>
불 임</w>
부지 런
부지런 히</w>
부끄러 움</w>
부 업</w>
부 도
볼 일</w>
본 가</w>
볶 이</w>
복 귀</w>
보 인</w>
보 낼까</w>
병 마</w>
병 든</w>
번 거
벅 찬데</w>
버릇 없</w>
방 광
발 작</w>
받 쳐</w>
반가 웠</w>
바 늘</w>
민 거리</w>
미용 실</w>
미 흡</w>
물 품</w>
물 질</w>
물 어도</w>
물 려</w>
물 러
문 학</w>
무너 져</w>
무 려</w>
무 가
무가 내</w>
면역 력</w>
맡 길</w>
맞 춤법</w>
망가 뜨렸</w>
맛 집</w>
말 지</w>
막 무가내</w>
마 른</w>
립 성</w>
라 잖아</w>
떡 볶이</w>
떠 맡기</w>
떠 넘겨</w>
땅 값</w>
딸 내미</w>
따라 야</w>
따 위</w>
들어 와도</w>
들 인</w>
들 을까</w>
들 였</w>
들 여서</w>
들 어서</w>
든 다</w>
드 려도</w>
뒷 담</w>
둘 러</w>
된 다며</w>
됐 으니</w>
됐 었</w>
돼 도</w>
동 년
동년 배</w>
돌아 가실</w>
도망 쳤</w>
도 태</w>
도 우</w>
데려 와서</w>
덜 컥</w>
더 워서</w>
더 운</w>
대 소변</w>
대 뜸</w>
당 할지</w>
당 시</w>
당 번</w>
당 구</w>
단 칸방</w>
단 벌</w>
단 단히</w>
단 골</w>
다 시
다 름
늘 려</w>
놀이 동산</w>
노 화</w>
노 조</w>
노 년기</w>
내 려서</w>
남 겼</w>
나온 다</w>
나빠 져</w>
나 아</w>
나 쁠</w>
낀 다고</w>
끝 날</w>
끌 어
끊 이</w>
께 선</w>
깨 지</w>
기술 직</w>
기 일</w>
기 숙사</w>
기 쁜지</w>
기 립성</w>
기 관</w>
급 급</w>
그랬 었</w>
그 릇</w>
그 다지</w>
귓 등</w>
권 위</w>
구 워</w>
구 경</w>
교 복</w>
괴롭 힌
괜 스레</w>
관 심사</w>
공 휴일</w>
공 로</w>
고지 식</w>
고 민거리</w>
경 향</w>
경 과</w>
결 석</w>
결 근</w>
결 과
견 뎌
격 리</w>
겨 졌</w>
게 시
거 칠</w>
거 릴</w>
강 하</w>
갑 작</w>
감 소</w>
간 절히</w>
각 오</w>
가져 간</w>
가 계부</w>
힘 없</w>
힘 드
흰 머리</w>
흘러 가</w>
흘 렀</w>
흔 적</w>
흔 들리</w>
흉 보</w>
휴 지</w>
훌 쩍</w>
횡 단</w>
화 병</w>
협 조</w>
협 업</w>
협 심
협심 증</w>
혈 관</w>
현 명</w>
현 관</w>
헤어 져야</w>
헛 된</w>
허 세</w>
허 가</w>
향 상</w>
했 잖아</w>
햄 버
햄버 거</w>
해야 겠다</w>
해 요</w>
해 산물</w>
해 버려서</w>
한 때</w>
한 다면서</w>
한 다
하 락</w>
피부 과</w>
플 링</w>
풍 기</w>
풍 경</w>
폭 식</w>
편 치</w>
퍼 져</w>
퍼 붓</w>
파 트
파트 너</w>
틀어 졌</w>
트레 이너</w>
트 워크</w>
트 림</w>
트 로
퇴직 자</w>
텃 밭</w>
턱 대
턱대 고</w>
터 질</w>
태 평</w>
탈 감</w>
탁 구</w>
타 령</w>
큰 소리</w>
커 피
커 플링</w>
침 밥</w>
친 해져야</w>
친 언니</w>
친 동생</w>
치 울</w>
치 아</w>
치 솟</w>
치 사</w>
치 명</w>
출 세</w>
출 가</w>
추 진</w>
추 스
초 음
초음 파</w>
쳤 으면</w>
체 지방</w>
청 소
청 기</w>
처 했</w>
채 널</w>
찬 성</w>
차 가운</w>
찢 어질</w>
찍 힌</w>
쫓겨 나</w>
쩡 히</w>
짜 리</w>
진 정한</w>
진 전</w>
직 책</w>
직 설</w>
지 하</w>
지 칠</w>
지 체</w>
지 않</w>
지 는</w>
증 오</w>
증 언</w>
준 다면</w>
준 다던</w>
주 방</w>
종 업
종업 원</w>
졸업 반</w>
졸 라서</w>
져 도</w>
제 대</w>
접 어들</w>
점 장</w>
점 잖</w>
전 화
전 담</w>
전 기</w>
저 지른</w>
저 렴</w>
저 녁
재 판</w>
장 염</w>
장 마</w>
잡아 먹</w>
잠 자</w>
잘 것
작업 복</w>
자 책</w>
자 습</w>
자 격</w>
임 산
임산 부</w>
일 치</w>
일 수록</w>
일 모레</w>
일 렀</w>
일 러
인사 이동</w>
인 하</w>
인 도</w>
인 다</w>
이루 어지</w>
이래 저래</w>
이겨 냈</w>
이 른</w>
의 학</w>
의 외</w>
의 사
의사 소통</w>
은근 슬쩍</w>
육 체</w>
유 급</w>
위 선</w>
원 통</w>
원 장</w>
워 지</w>
우 정</w>
우 스
우 겨서</w>
요 샌</w>
왔 으니</w>
와 버렸</w>
올라 와</w>
올 까봐</w>
오래 가</w>
오 르
오 답</w>
예 단</w>
였 으면</w>
연 배</w>
연 령</w>
역 사</w>
여 겼</w>
엄 연히</w>
언젠 데</w>
어 났</w>
양 말</w>
야 구
애 써</w>
앞 당
앞 가림</w>
암 울</w>
알아 볼</w>
알려 질까</w>
알려 줘</w>
안 내</w>
악착 같이</w>
아쉬 웠</w>
아 침밥</w>
아 선</w>
싹 싹</w>
싱 숭
싱숭 생
싱숭생 숭</w>
십 년
십년 지기</w>
심 술</w>
실 까봐</w>
신 약</w>
식 간</w>
시원 섭섭</w>
시끄 러워</w>
시끄 러
시 합</w>
승 장구</w>
승 승장구</w>
쉬 웠</w>
숨 긴</w>
숨 겨서</w>
술 주정</w>
순 식간</w>
순 수</w>
수 명</w>
손 발</w>
속 아</w>
소 풍</w>
소 속</w>
소 셜</w>
소 꿉
소꿉 친구</w>
소 견</w>
성 애자</w>
설 립</w>
선 언</w>
서 관</w>
생겼 으면</w>
상담 원</w>
상 해서</w>
상 실감</w>
살펴 보</w>
산 업</w>
사 후</w>
사 용
사 병</w>
사 돈</w>
뽀 뽀</w>
뻔 해</w>
빵 집</w>
빨 라</w>
빚 보증</w>
비 대</w>
붙 여</w>
불 쑥</w>
불 려
분 장</w>
분 양</w>
부 턴</w>
부 추
부 진</w>
부 정
부 적</w>
부 린다고</w>
부 른</w>
부 담
부담 감</w>
본 받</w>
복 부</w>
보 청기</w>
보 잘것
버 튼</w>
버 텼</w>
버 겁</w>
뱃 속</w>
방 안</w>
방 관
방관 자</w>
밥 상</w>
밝 혀
발 병</w>
반 납</w>
바꿔 야</w>
바 랄</w>
민 원</w>
민 간</w>
미 대</w>
물러 나</w>
문 의</w>
문 신</w>
무 턱대고</w>
무 인</w>
무 의미</w>
몰려 와</w>
몰 려</w>
몰 랐었</w>
명 확</w>
멀 쩡히</w>
매 정</w>
매 월</w>
맡 겨서</w>
망 친</w>
망 가졌</w>
말 없이</w>
말 년</w>
만 데</w>
만 난다는</w>
리 스트</w>
르 르</w>
령 기</w>
려 졌</w>
라 스</w>
라 는군</w>
뜸 해</w>
떨 쳐</w>
떠나 보내</w>
떠 안</w>
따라 오</w>
들어 갈수록</w>
들 통</w>
드 릴까</w>
뒹 굴</w>
뒤집어 썼</w>
뒤 처리</w>
둘 지</w>
두 세</w>
된 다니까</w>
되 도록</w>
돼 야</w>
돼 버렸</w>
동 무</w>
돌 아서</w>
돌 려서</w>
도 서관</w>
도 구</w>
덩 이</w>
던 졌</w>
더 러워서</w>
대 부</w>
달라 져</w>
다닐 까</w>
다닌 다는</w>
다가 올수록</w>
다 수</w>
다 마다</w>
늘 리</w>
느 려</w>
누 군</w>
뇌 경색</w>
놨 더니</w>
농 구</w>
놀 랍</w>
노 예</w>
노 동
네 트워크</w>
넘어 진</w>
내 줬</w>
내 줘서</w>
내 일모레</w>
남 매</w>
날 려서</w>
난 데</w>
낙 방</w>
나잇 살</w>
나아 질까</w>
나빠 질</w>
나무 라</w>
나 을지</w>
나 왔었</w>
나 다</w>
나 눈</w>
나 갈지</w>
나 갈까</w>
나 간다고</w>
끌 려
꿈 꿔
꼰 대</w>
깨 워</w>
깨 닫</w>
깜빡 했</w>
깜빡 깜빡</w>
깜 박</w>
까다 로운</w>
깊 이</w>
김 치</w>
기관 지</w>
기 재</w>
기 록</w>
급 해서</w>
급 차</w>
급 성</w>
금 주</w>
금 세</w>
근 속</w>
근 래</w>
그러 나</w>
귀 촌</w>
귀 엽</w>
귀 병</w>
권 했</w>
구 토</w>
구 석
구 마</w>
구 급차</w>
교 차</w>
교 묘</w>
관리 자</w>
관 리사</w>
관 뒀</w>
과 실</w>
공 통</w>
골 라</w>
고 쳐야</w>
고 요</w>
고 약</w>
고 도</w>
고 구마</w>
고 가</w>
계 기</w>
게으 르</w>
게시 판</w>
겉 모습</w>
겉 돌</w>
건강 히</w>
개 운</w>
갔 다
갑작 스레</w>
감 추</w>
감 옥</w>
감 싸</w>
갇 혀</w>
가져 와서</w>
가만 두</w>
가까 워
가 질까</w>
가 져서</w>
가 정부</w>
가 만</w>
흥 청
흥청 망
흥청망 청</w>
흘 려서</w>
흘 러</w>
흉 터</w>
휘 둘
휘 두르</w>
회 계</w>
황 망</w>
활 기
확 장</w>
화 재</w>
화 력</w>
화 냈</w>
화 기
화기 애
화기애 애</w>
현 기증</w>
헤어 져</w>
향 해</w>
해 할까</w>
해 치</w>
해 약</w>
할 꺼</w>
하 니</w>
피 티</w>
피 자</w>
피 로
프 랜
프랜 차
프랜차 이즈</w>
편 해질</w>
페 이</w>
팔 팔</w>
파 탄</w>
티 즘</w>
틈틈 이</w>
특 기</w>
트 볼</w>
툭 툭</w>
투덜 대</w>
테 리어</w>
테 니스</w>
태 연</w>
킬 로
키 워서</w>
클 래
크 리
크리 스마
크리스마 스</w>
코 피</w>
컸 었</w>
컵 라면</w>
커피 숍</w>
커 리어</w>
캠 프</w>
캐 나다</w>
캄 하</w>
캄 캄하</w>
카 메
침 체</w>
침 착</w>
친 화력</w>
친 정
충 전</w>
축 제</w>
축 가</w>
최 저</w>
최 우선</w>
체 념</w>
처 해</w>
처 참</w>
처 자식</w>
처 녀</w>
책임 질</w>
찾아 갈</w>
차 릴</w>
찝 찝</w>
찌 검</w>
쫓아 다니</w>
징 그러
질 까봐</w>
진 액</w>
진 술</w>
지난 해</w>
지 킬</w>
지 켰</w>
지 냈었</w>
주 차</w>
주 웠</w>
주 변
주변 인</w>
주 목</w>
주 간</w>
죄 지</w>
졸 랐</w>
조 작</w>
조 심
조 그만</w>
조 그마</w>
조 각</w>
제 물</w>
정신 과</w>
접 대</w>
절 차</w>
절 실</w>
절 로</w>
전 업
전업 주부</w>
전 액</w>
전 신</w>
전 반</w>
저 께</w>
저 금
재 주</w>
장 담</w>
장 기간</w>
잡 혔</w>
잠 가</w>
자 매</w>
자 립</w>
임 대
임대 료</w>
잃어 버려서</w>
일 기
일기 장</w>
일 과</w>
인 형</w>
인 테리어</w>
인 식</w>
인 복</w>
인 격</w>
이런 지</w>
이러 면</w>
이 성애자</w>
이 명</w>
의 무</w>
으 실까</w>
으 신지</w>
으 로
융 통</w>
유 통</w>
위 태</w>
원 피스</w>
워 했</w>
움 큼</w>
우 대</w>
요 금
외 우</w>
완 료</w>
와 줘서</w>
옮 겨야</w>
오 지</w>
오 로
오로 지</w>
예뻐 해서</w>
영 원</w>
영 수
영수 증</w>
열 사병</w>
열 렸</w>
열 려</w>
역 국</w>
여 겨서</w>
여 건</w>
에어 컨</w>
에 요</w>
엄 쉬
엄쉬 엄</w>
엄 살</w>
언 급</w>
억 지</w>
어쩌 다가</w>
어지 러워서</w>
어지 러워</w>
어리 석</w>
어려 웠을</w>
어려 운가</w>
어긋 나</w>
어 학</w>
어 중간</w>
어 딨</w>
어 둡</w>
양 육비</w>
얄 밉</w>
얄 미워서</w>
약 한데</w>
야단 맞</w>
애 초</w>
알아 볼까</w>
알 릴</w>
안 면</w>
악 순환</w>
아픈 지</w>
아쉬 움</w>
아랫 집</w>
아랫 사람</w>
아니 야</w>
아낌 없이</w>
아 만</w>
아 낀다고</w>
쓸 지</w>
쓰러 져</w>
쑥 스러워</w>
써 버려서</w>
쌩 쌩</w>
쌓 여서</w>
싸 운
실 종</w>
신 히</w>
신 뢰
신뢰 감</w>
신 다니</w>
식 비</w>
시험 관</w>
시큰 둥</w>
시 대회</w>
습 득</w>
스트레 칭</w>
스러 워졌</w>
스러 운데</w>
스 케
쉬 엄쉬엄</w>
숨 겨야</w>
수 석</w>
수 단</w>
쇠 약</w>
손 찌검</w>
속 인</w>
속 여</w>
속 물</w>
소문 난</w>
소 파</w>
소 중히</w>
소 유
세 울</w>
성가 실</w>
성가 셔서</w>
성 전환</w>
설 정</w>
선 암</w>
선 글
선글 라스</w>
서글 퍼져</w>
생 전</w>
생 선</w>
생 길
상 할</w>
살 피</w>
살 려서</w>
살 길</w>
사 니</w>
뻐 근</w>
빨 라서</w>
빠져 나가</w>
비 추</w>
비 웠</w>
비 원</w>
비 운</w>
비 아</w>
비 법</w>
불려 갔</w>
불 친절</w>
불 량
불량 자</w>
분 통</w>
부러 운</w>
부 산</w>
부 반장</w>
부 룩</w>
볼 래</w>
본 부</w>
복 구</w>
보인 다는</w>
보살 피</w>
보 탬</w>
보 조제</w>
보 유</w>
병 가</w>
변 변</w>
베 끼</w>
벌 어진</w>
번 다고</w>
버텨 야</w>
배고 프</w>
배고 파서</w>
방 황</w>
밥 값</w>
발 달</w>
박 스</w>
박 람
박람 회</w>
바닥 났</w>
바닥 나</w>
바 쁜지</w>
바 뀔</w>
믿 겨</w>
민 감</w>
미뤄 야</w>
미 용</w>
미 역국</w>
물 혹</w>
문제 점</w>
묵 살</w>
무서 워하</w>
무서 워졌</w>
무 인도</w>
못 했을까</w>
못 살</w>
몰아 가</w>
몰 려서</w>
몰 두</w>
모 함</w>
모 질</w>
면 회</w>
멤 버</w>
메 달</w>
먹 먹</w>
머 티즘</w>
매 형</w>
매 운</w>
맡 겨야</w>
맞춰 야</w>
맞 춘</w>
망 가지</w>
말 려</w>
말 라</w>
만 두</w>
마주 친</w>
마 중</w>
리 라</w>
리 기</w>
류 머티즘</w>
렁 거리</w>
란 다고</w>
라 더라</w>
라 더군</w>
떠 서</w>
떠 날지</w>
따 를</w>
들 킬</w>
들 러
든 데</w>
뒷 산</w>
뒤 지</w>
둘러 보</w>
되 풀이</w>
되 돌릴</w>
돌이 킬</w>
돌 볼</w>
독 신</w>
독 거</w>
도 와
도 둑
덧 나</w>
대 사</w>
대 감</w>
달라 질</w>
달 라도</w>
단 정</w>
단 골
다름 없</w>
다녀 와야</w>
다 소</w>
능 숙</w>
는 다네</w>
느 낄
느낄 까</w>
누 르</w>
놓 인</w>
놀 이터</w>
놀 랄</w>
놀 라
노 출</w>
노 부부</w>
넥 타이</w>
너 그
너그 럽</w>
냈 으면</w>
내려 와서</w>
내게 도</w>
내 면</w>
남 녀</w>
날카 롭</w>
난 청</w>
낙 심</w>
나 이
나 섰</w>
끼 쳐</w>
끝 낸</w>
끝 났으면</w>
꿈 꿨</w>
꾸 로</w>
꾸 려</w>
깨 우</w>
까 칠</w>
긴 데</w>
긴 다고</w>
기뻐 해</w>
기 저</w>
기 약</w>
기 름
급 전</w>
금 지</w>
금 고</w>
글 씨</w>
근 심</w>
그랬 을까</w>
그 땐</w>
궤 양</w>
궁 핍</w>
궁 리</w>
구석 구석</w>
구 한</w>
구 인</w>
구 두</w>
괴로 워하</w>
공들 인</w>
공 공</w>
골 목</w>
골 랐</w>
고사 하고</w>
고마 운데</w>
고 역</w>
고 령</w>
계 좌</w>
계 곡</w>
경 화</w>
경 영
경 시대회</w>
경 비원</w>
겨 를</w>
게이 트볼</w>
검 소</w>
걸 어야</w>
걸 렸었</w>
거 두</w>
거 꾸로</w>
갖 추</w>
강 남</w>
감 수</w>
간 신히</w>
간 단히</w>
가벼 워진</w>
가까 워졌</w>
가 해</w>
가 두</w>
가 구</w>
힘 쓰</w>
흘 렸</w>
흉 흉</w>
훔 친</w>
훈 육</w>
훈 계</w>
회 사원</w>
회 관</w>
회 계사</w>
화 요일</w>
화 면</w>
화 만</w>
홍 수</w>
혼 낼</w>
호 통</w>
호 의</w>
호 르
호르 몬</w>
협 력</w>
헷갈 려서</w>
헤어 질까</w>
헤 쳐</w>
헛 산</w>
험 악</w>
헐 뜯</w>
해 지지</w>
해 줘서</w>
해 줄지</w>
해 둘</w>
할 인</w>
한 없이</w>
하얘 지</w>
하 한가</w>
필 통</w>
피로 감</w>
피 아니
피아니 스트</w>
플 레이</w>
포 트</w>
편 입</w>
편 두통</w>
편 견</w>
페 이
퍼뜨 린</w>
퍼 졌</w>
퍼 져서</w>
패 션</w>
파 벳</w>
파 견</w>
틀어 져서</w>
틀 려</w>
특 정</w>
특 성</w>
특 근</w>
특 강</w>
트로 트</w>
통 풍</w>
통 계</w>
토 하</w>
토 피</w>
토 로</w>
토 가</w>
텅 텅</w>
태 블
태블 릿</w>
탈 퇴</w>
탄 탄</w>
킬로 그램</w>
키워 놨</w>
키 스</w>
큰 소리치</w>
큰 돈</w>
코 스</w>
코 드</w>
컨 설
커 졌</w>
커 져</w>
카메 라</w>
친 분</w>
치 주
치주 염</w>
치 의</w>
치 열</w>
치 없</w>
치 다
치다 꺼리</w>
측 정</w>
춰 서</w>
충 성</w>
출 전</w>
출 석</w>
축 내</w>
추 천
추천 서</w>
추 운</w>
추 슬
최 소</w>
초 보</w>
초 리</w>
쳐다 봐</w>
쳐다 볼</w>
쳐 버렸</w>
쳐 다</w>
청 해</w>
철 없이</w>
천 사</w>
챙겨 야지</w>
책임 져</w>
창 창</w>
착 해</w>
착 실</w>
차 원</w>
차 여서</w>
찌 개</w>
쪼 잔</w>
쩝 쩝</w>
짝 꿍</w>
질 서</w>
질 러
질 구
질구 질</w>
진 료
진료 비</w>
진 대</w>
직 자</w>
지켜 봐</w>
지나 쳐서</w>
지 친다</w>
지 망</w>
지 니</w>
지 능</w>
지 끈
지 극
지극 정성</w>
증 명</w>
즐 겼</w>
쥐 구멍</w>
줄 줄이</w>
죽 마
죽마 고
죽마고 우</w>
주 치의</w>
주 책</w>
주 관</w>
좋아 했</w>
종 이</w>
종 식</w>
졸 라</w>
존 댓
존댓 말</w>
져 서인지</w>
제 사</w>
정 착</w>
정 색</w>
정 거
정거 장</w>
접어 드</w>
접 관</w>
점 원</w>
절 뚝
전화 기</w>
전 쟁</w>
전 염</w>
전 병</w>
적 막</w>
적 령기</w>
저금 통</w>
저 질러</w>
저 려서</w>
저 럴까</w>
저 거</w>
재 수
재 검사</w>
잦 아지</w>
장가 가</w>
장 모</w>
잠 그</w>
잘 사</w>
잘 려</w>
잔 인</w>
작 물</w>
자 칫</w>
자 연
자연 스레</w>
자 신
자신 만만</w>
잊어 버린</w>
입 력</w>
임 하</w>
임 원
임 시</w>
일 세</w>
일 머리</w>
일 곱</w>
인 출</w>
인 수</w>
인 문</w>
인 걸</w>
이웃 들이</w>
이러 다간</w>
이 해
이 석</w>
이 비
이 만큼</w>
이 만</w>
이 때</w>
의료 진</w>
의 기
음식 물</w>
은 혜</w>
으 라</w>
육 권</w>
유 회</w>
유 전병</w>
유 언
유 산소</w>
유 도</w>
위 아래</w>
위 반</w>
웹 툰</w>
원 룸</w>
웃 어
웃 겨</w>
움직 여도</w>
운 용</w>
욕 할</w>
요금 제</w>
요 금</w>
외 할머니</w>
외 워서</w>
외 상</w>
외 딴</w>
외 동</w>
완벽 주의</w>
올라 와서</w>
올 라도</w>
온 천</w>
옥 상</w>
오 타</w>
오 만</w>
오 감</w>
예뻐 했</w>
예 습</w>
옆 구
옆구 리</w>
영 장</w>
영 역</w>
였 을</w>
염 치없</w>
염 치</w>
열 중</w>
역겨 운</w>
여 덟</w>
업 적</w>
얼떨 결</w>
얼 버
얼 만데</w>
언 론</w>
어처구 니</w>
어려 워진</w>
어 필</w>
어 째</w>
어 수
어 마</w>
어 마
어마 어마</w>
어 땠</w>
어 금
어금 니</w>
어 가</w>
양 쪽</w>
양 육권</w>
양 육</w>
약 했</w>
약 해진</w>
약 재</w>
야 한</w>
야 유회</w>
알려 줘야</w>
알 파벳</w>
안 전</w>
안 쓰러
안 다고</w>
안 겨</w>
악 회</w>
아팠 으면</w>
아이 스
아이스 크림</w>
아이 고</w>
아쉬 운</w>
아 토피</w>
아 려</w>
아 낄</w>
씨 름</w>
씌 웠</w>
쓸데 없이</w>
쓸 까</w>
쓰 려</w>
쑥 스럽</w>
쑤 셔</w>
쌍 히</w>
싫어 해서</w>
실 체</w>
실 업자</w>
신 형</w>
신 물</w>
신 다는</w>
식 도
시원 찮</w>
시달 려서</w>
시 행</w>
시 아버님</w>
시 시
습 생</w>
습 기</w>
스테 이크</w>
스러 우</w>
스 페
스 트
슈 퍼
쉴 까</w>
쉬 기</w>
숨겨 왔</w>
숨 쉬기</w>
숙 취</w>
숙 이</w>
수 영장</w>
수 많</w>
수 리</w>
수 리
수리 비</w>
수 락</w>
솔 로</w>
손 녀
손녀 딸</w>
소아 암</w>
소문 났</w>
소년 단</w>
소 주</w>
소 금</w>
세 워서</w>
세 뱃
세뱃 돈</w>
세 끼</w>
성 한</w>
성 폭행</w>
섞 인</w>
서 툰</w>
서 먹
서먹 서먹</w>
생길 지</w>
생 리
생리 대</w>
샌 가</w>
새 워서</w>
상 장</w>
살아 남</w>
살 려야</w>
산 모</w>
사용 법</w>
사무 직</w>
사 적</w>
사 귈
사 귄
사 교</w>
쁜 가</w>
뽑 히</w>
뺏 어가</w>
빼앗 겼</w>
빼 돌리</w>
빤 히</w>
빠 질까</w>
빌 려야</w>
빌 려서</w>
빌 라</w>
빈 손</w>
비 상</w>
비 롯</w>
불안 해하</w>
불러 도</w>
불 쌍히</w>
불 경기</w>
분 만</w>
분 리</w>
분 량</w>
부러 진</w>
부러 져서</w>
부러 워하</w>
부딪 혀서</w>
부끄러 워하</w>
부끄러 워졌</w>
부끄러 울</w>
부 치</w>
부 질</w>
부 조</w>
부 전</w>
부 린</w>
부 고</w>
볼 펜</w>
볼 꺼</w>
볼 게</w>
복 장</w>
보 직</w>
보 건
병 드</w>
변 비</w>
법 원</w>
벌 어지</w>
벌 어졌</w>
벌 금</w>
번거 로워</w>
버텨 왔</w>
버려 졌</w>
버 섯</w>
뱀 술</w>
배 탈</w>
방광 염</w>
방 심</w>
밤 새워서</w>
밝 힐</w>
받 침</w>
반가 운</w>
반 신</w>
반 신
박 탈감</w>
바라 봤</w>
바 퀴</w>
바 친</w>
바 닷
바닷 가</w>
밀어 내</w>
밀려 와</w>
밀려 오</w>
밀 쳐</w>
미뤄 서</w>
미 워져</w>
물 으</w>
문 턱</w>
묵 묵
무서 웠</w>
무너 진</w>
무 심
무 사</w>
무 마</w>
무 르</w>
무 대</w>
무 단</w>
무 난</w>
못 할까봐</w>
못 지않</w>
몹 쓸</w>
몰 차</w>
몰 입</w>
몰 리</w>
몰 렸</w>
모른 대</w>
모 조리</w>
매 진</w>
매 몰차</w>
맡 아
맞 췄</w>
맞 서</w>
망가 져서</w>
망 할</w>
말 주변</w>
말 수</w>
말 문</w>
만 취</w>
만 져</w>
만 났었</w>
만 난다고</w>
마 킹</w>
리 포트</w>
리 치료</w>
리 더
리더 십</w>
른 데</w>
로 웠</w>
로 움</w>
로 사</w>
렌 드</w>
러 스</w>
랍 시고</w>
라 던데</w>
뜻 밖</w>
뜨 린</w>
뜨 거
떨 쳐
떠 돌</w>
떠 난다는</w>
떠 나갔</w>
따라 갔</w>
따 질</w>
들려 오</w>
들 으면서</w>
들 렸</w>
드러 내</w>
드 셨</w>
드 물</w>
뒷 이야기</w>
뒷 받침</w>
뒷 모습</w>
뒤 치다꺼리</w>
둑 이</w>
두근 두
두근두 근</w>
두 둑이</w>
된 다면서</w>
된 다네</w>
돌 변</w>
독 차지</w>
독 자</w>
도 장</w>
도 자기</w>
도 입</w>
데려 갔</w>
데 이터</w>
덤 벙
더 운데</w>
더 부룩</w>
더 러운</w>
더 러
대 입</w>
대 도</w>
당 직</w>
달려 가</w>
달 리기</w>
다시 피</w>
다독 여</w>
다닌 대</w>
다녀 온다고</w>
다가 왔</w>
다가 올</w>
다 퉈</w>
다 툴</w>
다 이
다 운</w>
다 그
니 어</w>
느 낀
눈 뜨</w>
놓 인다</w>
놀 릴</w>
놀 러
넘어 질</w>
넘 긴</w>
냉 전</w>
내려 앉</w>
내 방</w>
내 릴</w>
내 력</w>
납 득</w>
날 릴</w>
낙 서</w>
나 쁜데</w>
꽁 초</w>
꼬 이</w>
껄 끄
꺼 낼</w>
깰 까</w>
깔 보</w>
깎 이</w>
까 딱</w>
길 가</w>
기억 나</w>
기뻐 했</w>
기 절</w>
기 여</w>
기 어
기 심</w>
기 러</w>
금 상</w>
극 심</w>
극 구</w>
그만 둬</w>
그런 다고</w>
그 야</w>
그 린</w>
그 놈</w>
규 제</w>
권 리</w>
국 사</w>
구 쳐</w>
구 질구질</w>
구 성</w>
구 려</w>
구 두
교 환</w>
교 체</w>
교 우</w>
교 대</w>
괴롭힌 다고</w>
괴로 움</w>
관 문</w>
관 광</w>
과 제물</w>
과 음</w>
과 민</w>
과 로사</w>
공 항</w>
공 정</w>
공 인</w>
공 식</w>
골 프
골 라야</w>
골 라서</w>
곧 바로</w>
고마 우</w>
고 프</w>
고 파서</w>
고 의</w>
계 정</w>
계 열</w>
결과 물</w>
결 항</w>
견 뎌</w>
건 너</w>
건 너
거 처</w>
거 액</w>
거 둘</w>
거 니</w>
강 화</w>
강 해</w>
강 박</w>
값 비싼</w>
갑상 선</w>
감 출</w>
간 혹</w>
각 각</w>
가정 폭력</w>
가르 쳤</w>
가 습기</w>
가 스</w>
가 뿐</w>
가 루</w>
가 려서</w>
힘든 가</w>
힘 써야</w>
힌 다</w>
흔 한</w>
휴 게
휩 쓸
훈 수</w>
훈 련</w>
회의 실</w>
환 절
환절 기</w>
환 승</w>
환 상</w>
확 대</w>
화 환</w>
화 통</w>
화 낸</w>
화 난</w>
혹 여
혹여 나</w>
호 소</w>
호 들
호들 갑</w>
형 수</w>
혐 오감</w>
혈 변</w>
헤 프</w>
헤 어</w>
헤 매</w>
헛 디
향 수</w>
행 위</w>
행 실</w>
햇 빛</w>
해 했</w>
해 왔</w>
해 오</w>
해 석</w>
해 서
해 둔</w>
할 멈</w>
한 바탕</w>
한 답
한답 시고</w>
한 구석</w>
학 자</w>
학 우</w>
하 태평</w>
하 이
하 락
하락 세</w>
피 할</w>
피 스
피스 텔</w>
프리 랜
프리랜 서</w>
프 린
품 질</w>
품 절</w>
푸 드</w>
폴 리
폴리 오</w>
포 트
포트 폴리오</w>
포 츠</w>
편 집
팽 개
패 혈증</w>
패 스트
패스트 푸드</w>
패 딩</w>
팔 짱</w>
팔 씨름</w>
판 길</w>
파 업</w>
팀 플레이</w>
티 비</w>
티 격
티격 태
티격태 격</w>
트 렌드</w>
튀 어
투 표</w>
퇴 식</w>
터무니 없</w>
터 졌</w>
태 희</w>
태 워</w>
탐 탁</w>
킬 까봐</w>
키운 다고</w>
큰 형</w>
큰 소리쳤</w>
콩 달
콩달 콩</w>
콜 콜</w>
커 뮤
커뮤 니
커 갈수록</w>
캐 묻</w>
칠 판</w>
친정 집</w>
친 절히</w>
친 근</w>
치 지는</w>
치 우
치 여</w>
치 병</w>
치 렀</w>
츠 하이
취 해야</w>
추 태</w>
최 신형</w>
촌 스럽</w>
초 췌</w>
쳐 져</w>
체 면</w>
체 구</w>
청 구</w>
철 회</w>
천 하태평</w>
척 수막염</w>
챙 겼
챙겼 으면</w>
채 울</w>
찾아 온</w>
찾아 다니</w>
착 해서</w>
차 차</w>
차 서</w>
차 릴까</w>
차 려야</w>
차 려서</w>
찜 질</w>
찜 질
찜질 방</w>
찍 혀서</w>
쫓겨 날</w>
쪽 같이</w>
쪼 들리</w>
집 회</w>
집 세</w>
집 들이</w>
짐 작</w>
진 영</w>
직 후</w>
직 스럽</w>
지켜 줄</w>
지나 쳐</w>
지 를</w>
지 낼지</w>
지 낼까</w>
지 낸다고</w>
지 나갈</w>
지 구</w>
지 간</w>
증 권
증권 사</w>
쥐 어
중 식</w>
중 매</w>
줄 곧</w>
준 다니까</w>
준 다니</w>
주 버
주버 님</w>
주 무시</w>
죄 자</w>
죄 인</w>
족 구</w>
조 처</w>
조 교</w>
젠 더</w>
제 육
제육 볶
제육볶 음</w>
정 황</w>
정 해져</w>
정 중</w>
정 제</w>
정 원</w>
정 서</w>
정 돈</w>
접 흡연</w>
접 하</w>
접 종</w>
절뚝 거리</w>
절 단</w>
전립 선</w>
전 한</w>
전 과</w>
적 합</w>
저 트</w>
저 절로</w>
저 장</w>
저 염
저염 식</w>
저 럴</w>
재 작년</w>
재 롱</w>
재 건축</w>
장 비</w>
잡 곡
잡곡 밥</w>
잘 라</w>
잔 병</w>
잔 데</w>
자 수</w>
자 서</w>
자 린
자 던</w>
자 국</w>
잊어 버려</w>
잇 속</w>
입 양
입양 아</w>
입 술</w>
잃어 버릴까</w>
일 절</w>
일 용
일용 직</w>
일 어서</w>
이어 폰</w>
이런 가</w>
이래 야</w>
이래 라</w>
이래 라
이래라 저래라</w>
이따 가</w>
이 집</w>
이 외</w>
이 빨</w>
이 메일</w>
이 리
이 뤘</w>
이 랬
이 등</w>
이 드</w>
의 로</w>
음 판</w>
음 직스럽</w>
은 다고</w>
으 쓱</w>
으 실</w>
으 신가</w>
으 냐고</w>
유부 녀</w>
유 형</w>
유 망</w>
윗 분</w>
위 약
위약 금</w>
웠 으면</w>
원 한</w>
원 생</w>
워 해서</w>
움츠 러
울 지</w>
울 음</w>
운동 화</w>
우 연</w>
우 산</w>
우 릴</w>
우 려</w>
우 기</w>
용 납</w>
욕 감</w>
왼 쪽</w>
외 벌</w>
왕 복</w>
왕 년</w>
올라 갈</w>
올 려
온 다면</w>
오 피스텔</w>
오 십
오십 견</w>
옛 말</w>
염 색</w>
열 악</w>
열 심</w>
열 린</w>
연 하</w>
연 체</w>
연 주</w>
연 애
연 사</w>
연 명</w>
연 도</w>
연 관</w>
엮 이</w>
역 부족</w>
여 전</w>
엑 스
엑스 레이</w>
얼 음판</w>
어처구 니
어처구니 없</w>
어지 럽
어지 러
어수 선</w>
어린 이집</w>
어려 운지</w>
어떤 지</w>
어 젠</w>
어 안</w>
어 미</w>
어 겨서</w>
양 해</w>
양 수</w>
양 복</w>
양 로
양로 원</w>
야구 장</w>
야 뇨
야뇨 증</w>
애 통</w>
애 기</w>
애 경사</w>
알 콩달콩</w>
알 츠하이
알 아내</w>
알 선</w>
안 주</w>
안 정제</w>
안 마
안마 기</w>
악 한</w>
악 취</w>
악 기</w>
아이 템</w>
아무 튼</w>
아무 데</w>
아름다 운</w>
아까 워하</w>
아 첨</w>
아 주버님</w>
아 웃</w>
아 먹</w>
씌 워서</w>
쓰러 질까</w>
쏟 아졌</w>
쏟 아부</w>
써 준</w>
싸 워야</w>
싸 워도</w>
싱 거
심 할</w>
실 태</w>
실 에</w>
실 상</w>
신 호</w>
신 중히</w>
신 부전</w>
식 사
시시 콜콜</w>
시달 려</w>
시 청</w>
시 점</w>
시 니어</w>
슴 없이</w>
슬퍼 할까</w>
슬 럼
슬럼 프</w>
스케 줄</w>
스스 럼
스스럼 없이</w>
스러 운지</w>
스 포츠</w>
스 토
스 껍</w>
쉬 쉬</w>
숭 숭</w>
술 잔</w>
순 산</w>
수 포</w>
수 칙</w>
수 집</w>
수 지</w>
수 입원</w>
수 련</w>
수 도</w>
수 군대</w>
쇼 크</w>
손 바닥</w>
손 길</w>
속상 해할</w>
속 일</w>
소유 물</w>
소 설</w>
소 비
소 모</w>
소 모
소 고기</w>
셨 으면</w>
세 트</w>
세 지</w>
세 운</w>
세 상
성 의</w>
성 원</w>
섭 취</w>
설 치</w>
설 날</w>
선 천</w>
선 지</w>
선 산</w>
섞 이</w>
석 류</w>
서러 웠</w>
서글 픈</w>
서 슴없이</w>
서 두르</w>
샴 푸</w>
생활 고</w>
생긴 다</w>
생 애</w>
생 생</w>
새 우</w>
새 내기</w>
상 조</w>
상 습</w>
살 찐</w>
살 쪘</w>
살 얼음판</w>
살 맛</w>
산 행</w>
산 악</w>
삭 제</w>
사 흘</w>
사 코</w>
사 직</w>
사 실상</w>
사 신</w>
사 려</w>
사 둔</w>
사 고
뻐 서</w>
빼앗 기</w>
빠 졌었</w>
빠 져야</w>
빚 더미</w>
빙 판길</w>
빈 약</w>
빈 둥
비 정규직</w>
비 명</w>
비 꼬</w>
비 관</w>
비 겁</w>
불러 오</w>
불 치병</w>
불 의</w>
불 능</w>
분 석</w>
분 기</w>
분 가</w>
북 받쳐</w>
부정 맥</w>
부딪 혀</w>
부도 나</w>
부끄 럼</w>
부 여</w>
부 실</w>
부 사장</w>
봐 줄</w>
본 격</w>
복 통</w>
복 직</w>
보잘것 없</w>
보인 대</w>
보살 필</w>
보건 소</w>
보 여야</w>
보 람
보 낼지</w>
변 해서</w>
변 함
변 동</w>
베 꼈</w>
벙 벙</w>
법 률</w>
범 죄자</w>
벌 인</w>
벌 벌</w>
벌 릴</w>
번 지</w>
번 복</w>
배 분</w>
밥 맛</w>
밤 중</w>
밤 낮
밤낮 없이</w>
밝 혀</w>
발 주</w>
반 평생</w>
반 자</w>
바꿔 야겠어</w>
바 이어</w>
바 란다고</w>
밀 쳤</w>
믿 음직스럽</w>
미뤄 졌</w>
미 쳤</w>
미 워졌</w>
미 영</w>
미 신</w>
미 룰</w>
미 더
미 경</w>
물어 봐</w>
무심 코</w>
무너 졌</w>
무 좀</w>
무 상</w>
무 력
무 덤</w>
무 단
무단 결근</w>
못 생긴</w>
못 생기</w>
몸 뚱
모 호</w>
모 진</w>
모 일</w>
모 은다고</w>
모 를까</w>
멸 시</w>
메 스껍</w>
멍 해</w>
멍 하니</w>
멀 리
멀리 서</w>
먹 였</w>
머리 채</w>
머 물</w>
매달 렸</w>
매 장</w>
매 뉴
매뉴 얼</w>
매 너</w>
맞 출</w>
맞 장
맞 이해</w>
맞 선</w>
망 해</w>
맘 껏</w>
말 고</w>
만 회</w>
만 화</w>
만 끽</w>
막 심</w>
마 켓</w>
마 칠</w>
마 셔
린 다는</w>
로 비</w>
려 다</w>
러 기</w>
랑 이</w>
란 히</w>
라 나</w>
라 기에</w>
뛰어 가</w>
뛰 쳐
떨쳐 낼</w>
떨어 졌으면</w>
떨 림</w>
떨 렸</w>
떠 올랐</w>
떠 오를</w>
떠 넘겼</w>
떠 나갈</w>
딱 지</w>
따 졌</w>
디자 이너</w>
디 저트</w>
듬 직</w>
들여 다</w>
들어 갈까</w>
들어 간다고</w>
들러 붙</w>
들 여</w>
들 락
드 는데</w>
뒤처 질</w>
뒤 숭숭</w>
뒤 떨어지</w>
둘 걸</w>
둔 해</w>
두근 거려</w>
두 절</w>
두 드리</w>
되 묻</w>
되 돌리</w>
되 돌려</w>
돼 버린</w>
동 조</w>
동 정</w>
동 일</w>
동 반자</w>
돌아 간</w>
돌려 줄</w>
돌 연사</w>
돌 린</w>
돋 보
독 하</w>
독 박</w>
도 주</w>
도 덕</w>
도 달</w>
도 난</w>
더 더욱</w>
대 주</w>
대 외</w>
대 립</w>
대 리
당 했었</w>
당 부</w>
담 긴</w>
달라 붙</w>
단골 손님</w>
단 시간</w>
다그 쳤</w>
다가 온</w>
다 쳐</w>
다 달이</w>
다 니깐</w>
눌 렀</w>
눈 초리</w>
누 웠</w>
뇌 척수막염</w>
농 촌</w>
놀 랬</w>
논 리</w>
논 다고</w>
녹 초</w>
노래 자랑</w>
노 숙</w>
노 름
년 회</w>
냉 정</w>
냈 으니</w>
내려 와</w>
내려 갈까</w>
내려 갈</w>
내 식당</w>
내 뱉</w>
내 겐</w>
낮 추</w>
낮 잠</w>
남 긴</w>
날 이</w>
난 임</w>
나이 라</w>
나 와도</w>
나 올까봐</w>
나 쁜가</w>
나 물</w>
나 려</w>
나 날이</w>
끼 칠까</w>
끝 장</w>
끙 대</w>
끙 끙대</w>
끌려 가</w>
꿍 이</w>
꿍 꿍이</w>
꿈꿔 왔</w>
꿀 까</w>
꼴 등</w>
꼬 여</w>
껴 안</w>
껄끄 러워</w>
꺼 려졌</w>
깨 져</w>
깨 뜨렸</w>
깎 아
김 없이</w>
길 러</w>
기울 이</w>
기어 코</w>
기름 진</w>
기다려 왔</w>
기 타</w>
기 적</w>
기 반</w>
기 밀</w>
기 러기</w>
기 대감</w>
급 할</w>
근 태</w>
근 원</w>
극 도</w>
그리 워서</w>
그런 다는</w>
그 려
균 형</w>
규 율</w>
군 고구마</w>
구두 쇠</w>
구 제</w>
구 성원</w>
구 내식당</w>
교 장</w>
괴 팍</w>
관계 없이</w>
과 할</w>
과 한</w>
과 체</w>
과 잉</w>
과 식</w>
공들 였</w>
공 황</w>
공 책</w>
공 사장</w>
공 방</w>
공 과</w>
공 감
공감 대</w>
곳 곳</w>
곰 팡이</w>
골 탕</w>
골 골
고 졸</w>
고 의로</w>
고 심</w>
고 스
고 말고</w>
고 리
고 래</w>
고 대</w>
고 달
고 교</w>
계 모</w>
경찰 관</w>
경 청</w>
경 고</w>
경 계</w>
겹 치</w>
겸 손</w>
결 리</w>
결 론</w>
격 표</w>
게을 리</w>
게을 러서</w>
게 이</w>
게 끔</w>
걸 치</w>
걸 쳐</w>
걸 음
걸 릴지</w>
걷 기</w>
건 조</w>
건 만</w>
거 린</w>
거 리
개 입</w>
강 조</w>
강 인</w>
갔 으면</w>
갑작 스런</w>
감 회</w>
감 쪽같이</w>
감 원</w>
감 상</w>
감 독</w>
갇 힌</w>
간 접흡연</w>
간 수</w>
간 부</w>
간 다는데</w>
가져다 주</w>
가져 도</w>
가져 갈</w>
가정 사</w>
가라 앉
가까워 질수록</w>
가까 워진</w>
가 물
가 르</w>
가 려
가 라</w>
가 꾸</w>
가 격표</w>
힘 써</w>
힘 겹</w>
희 귀</w>
흐 릿</w>
흐 려</w>
휩쓸 려</w>
훔 쳐
훔쳐 간</w>
회 화</w>
회 수</w>
활기 차</w>
환 영
환영 회</w>
확 보</w>
화 제</w>
화 방</w>
화 날</w>
혼 쭐</w>
혼 전</w>
혼 미</w>
혹 은</w>
혹 여</w>
혹 사</w>
호 출</w>
호 상</w>
호 되</w>
호 기심</w>
형 수
형수 님</w>
혐 의</w>
혈 액
혈액 형</w>
혈 안</w>
헤 아려</w>
헤 맸</w>
헛 되</w>
허 위</w>
허 사</w>
허 벅
허벅 지</w>
허 구</w>
행 할</w>
행 원</w>
행 세</w>
했 으나</w>
해서 든</w>
해 해서</w>
해 해</w>
해 진다</w>
해 버릴까</w>
해 대서</w>
해 다</w>
항 심</w>
항 목</w>
합 심</w>
합 류</w>
할 려고</w>
한 적</w>
한 민
한민 국</w>
한 문</w>
한 몫</w>
한 도</w>
한 껏</w>
한 국어</w>
한 국사</w>
한 결
한결 같이</w>
한 걸</w>
학 연</w>
학 식</w>
하얘 졌</w>
하나 같이</w>
하 장</w>
하 우</w>
하 여간</w>
하 얘</w>
하 얗</w>
하 반신</w>
하 무인</w>
하 굣
하굣 길</w>
필 름</w>
피 피티</w>
피 폐</w>
피 크</w>
피 임</w>
피 일</w>
피 시</w>
플 렉
플렉 스</w>
프리 카</w>
프 라
품 없</w>
풀 칠</w>
표 창
표창 장</w>
폭 탄</w>
폭 우</w>
평 생
편 의</w>
퍼 트</w>
퍼 진</w>
팔 찌</w>
팔 순</w>
파 스타</w>
파 스</w>
파 손</w>
특 이</w>
트 릴</w>
툴툴 거렸</w>
퇴 물</w>
통 지
통지 서</w>
통 점</w>
토 지</w>
택 지</w>
태어 날지</w>
태 교</w>
탈 출</w>
탄 소년단</w>
탁 월</w>
타 분</w>
타 박
타박 상</w>
타 깃</w>
킨 다는</w>
키운 다는</w>
클래 스</w>
큐 베이터</w>
콤 플렉스</w>
케 이션</w>
커 진</w>
커 다
캐 비
캐비 닛</w>
침 울</w>
침 묵</w>
칠 까봐</w>
친 할머니</w>
친 딸</w>
친 다고</w>
치 페이</w>
치 유</w>
치 약</w>
치 부</w>
치 미</w>
치 러야</w>
치 꼬
치꼬 치</w>
치 근
치근 덕
취 할</w>
취 한</w>
출 시</w>
추슬 러</w>
추 워서</w>
추 구</w>
최 저
초 초</w>
초 년
초년 생</w>
쳤 으니</w>
쳤 었</w>
쳐다 봤</w>
쳐 진</w>
체 하</w>
체 증</w>
청소 년</w>
청 했</w>
청 력</w>
철 석</w>
철 렁</w>
처 한</w>
처 우</w>
처 사</w>
처 가
챙 긴다고</w>
채 식</w>
찾아 봐야지</w>
찾아 봐도</w>
창 출</w>
창 밖</w>
참 고서</w>
착 했</w>
차 일
차일 피일</w>
차 용
차용 증</w>
차 분히</w>
차 량</w>
차 곡
찍 이</w>
쭐 대</w>
쫓아 냈</w>
쪽 방</w>
쩔 쩔
쩔쩔 매</w>
짠 돌
짠돌 이</w>
징그러 운</w>
징 징
짓 돈</w>
집 요</w>
질 타</w>
질 색</w>
진 히</w>
진 행할</w>
진 창</w>
진 즉
진즉 에</w>
진 저리</w>
진 다니까</w>
지겨 워서</w>
지 팡이</w>
지 킨</w>
지 지
지 정</w>
지 점장</w>
지 점</w>
지 으려고</w>
지 없</w>
지 독</w>
지 대</w>
지 낸
지 날</w>
지 고</w>
증 진</w>
증 인</w>
증 권</w>
증 가</w>
쥐 꼬리</w>
중 재</w>
중 시</w>
중 독자</w>
줄어 든</w>
줄 여서</w>
줄 여도</w>
주 지</w>
주 저</w>
주 인공</w>
주 우</w>
주 번</w>
죗 값</w>
좌 석</w>
종 신</w>
졸 이</w>
졸 라
족 족</w>
조심 스레</w>
조 상</w>
제 치</w>
제 정신</w>
제 작</w>
제 야</w>
제 시간</w>
제 빵
제빵 사</w>
정신 병</w>
정 식</w>
정 수기</w>
정 비</w>
정 다
정다 감</w>
접 시</w>
절 실히</w>
절 망감</w>
전 할</w>
전 학생</w>
전 폭</w>
전 시</w>
전 산</w>
전 략</w>
전 동</w>
적 반
적반 하장</w>
저 주</w>
저 버리</w>
저 랬
저랬 다</w>
재 직</w>
재 수술</w>
재 산
재산 세</w>
재 단</w>
재 검진</w>
장난 친</w>
장 인
장인 어른</w>
장 녀</w>
잡 무</w>
잠 든</w>
작 당</w>
자 포</w>
자 처</w>
자 질</w>
자 자</w>
자 소</w>
자 본
자 면서</w>
자 궁
잊어 버려서</w>
잊어 먹</w>
입 히</w>
임원 진</w>
임 해야</w>
임 자</w>
임 수</w>
일으 켜</w>
일어 날까</w>
일러 바쳤</w>
일 터</w>
일 주일</w>
일 쑤</w>
일 손</w>
일 석
일석 이
일석이 조</w>
일 생</w>
일 당</w>
인터 뷰</w>
인공 지능</w>
인공 수정</w>
인 큐베이터</w>
인 종</w>
인 다는</w>
인 기
이해 력</w>
이제 서야</w>
이리 저리</w>
이뤄 낸</w>
이랬 다
이랬다 저랬다</w>
이 하</w>
이 어서</w>
이 비</w>
이 맘
이맘 때</w>
이 마</w>
이 력</w>
이 끈
이끈 다는</w>
의료 비</w>
의기 소
의기소 침</w>
의 지
의 껏</w>
의 구
의구 심</w>
음 란
음란 물</w>
을 래</w>
은 행원</w>
으셨 으면</w>
으셨 는지</w>
으로 선</w>
으 라는데</w>
유치 원생</w>
유언 장</w>
유부 단</w>
유 입</w>
유 에스</w>
유 세</w>
유 서</w>
유 머</w>
유 라</w>
유 가족</w>
위 조</w>
위 생</w>
웬 일</w>
웠 었</w>
월 차</w>
월 말</w>
원 활</w>
워 킹</w>
워 진다</w>
웃 백</w>
움츠 려</w>
울 화통</w>
울 화</w>
우 쭐대</w>
우 유부단</w>
우 애</w>
우 러
우 나</w>
용 지</w>
용 종</w>
용 어</w>
용 도</w>
욕 해</w>
외로 워졌</w>
외로 울까</w>
외 동
외 과</w>
왜냐 하면</w>
완 고</w>
옮 겨서</w>
올라 야</w>
올 케</w>
올 바르</w>
온 전</w>
오른 다고</w>
오 피스</w>
오 픈</w>
오 직</w>
오 죽</w>
오 리
오리 엔
오리엔 테이션</w>
오 락</w>
오 더</w>
오 니</w>
예 술</w>
예 쁜데</w>
예 뻤</w>
영화 배우</w>
영화 관</w>
영 심</w>
열 흘</w>
열 받</w>
연애 고</w>
연 초</w>
연 연</w>
연 습생</w>
연 로</w>
역겨 웠</w>
역 류</w>
역 겨울</w>
여 한</w>
여 사원</w>
여 보</w>
엠 알</w>
에 스
엉 엉</w>
엉 망
엉망 진창</w>
엉 덩이</w>
었 었
었었 는데</w>
엇 나가</w>
업 종</w>
엄 만</w>
얼버 무리</w>
얼 룩</w>
언 질</w>
어지럽 히</w>
어울 린다고</w>
어린 이</w>
어려 워져</w>
어려 울지</w>
어 쩔
어 째
어 저께</w>
어 림</w>
어 련
어련 히</w>
어 눌</w>
어 날지</w>
얘 긴</w>
약 자</w>
야 호</w>
야 자</w>
야 외</w>
애 타</w>
앞당 기</w>
앞 장
앞 뒤</w>
압 박
압박 감</w>
암 투병</w>
암 기</w>
알아 채</w>
알아 차리</w>
알려 졌</w>
알려 져서</w>
안 하무인</w>
안 이</w>
안 색</w>
안 사람</w>
안 다면</w>
악 질</w>
악 영향</w>
아픈 가</w>
아팠 었</w>
아름다 워</w>
아까 워서</w>
아 프리카</w>
아 찔</w>
아 웃백</w>
아 사코</w>
아 비</w>
아 붙이</w>
아 나</w>
씌 워</w>
쑥 떡</w>
쏠 쏠</w>
쏟 아
쏘 아붙이</w>
썩 이</w>
쌈 짓돈</w>
쌀 밥</w>
싸운 다</w>
싸 워
싸 늘</w>
싸 구려</w>
싱 글</w>
싱 글
싱글 벙
싱글벙 글</w>
심 한지</w>
심 리치료</w>
심 기</w>
실 시</w>
실 속</w>
실 비</w>
실 명</w>
신 자</w>
신 음</w>
신 선</w>
신 분</w>
신 다</w>
식도 염</w>
식 히</w>
식 후</w>
시집 살이</w>
시집 보내</w>
시끄러 운데</w>
시 중</w>
시 울</w>
시 야</w>
시 샘</w>
시 련</w>
시 가</w>
승 급</w>
스마 트</w>
스러 워할</w>
스 팸</w>
스 틱</w>
스 쳐</w>
스 승</w>
스 리</w>
슈퍼 마켓</w>
숨겨 둔</w>
숨겨 놨</w>
숨 통</w>
숨 길</w>
술 술</w>
술 버릇</w>
순 하</w>
순 번</w>
숙 소</w>
수술 대</w>
수 평</w>
수 용</w>
수 법</w>
수 범</w>
수 납</w>
수 긍</w>
수 건</w>
수 거</w>
송 금</w>
솔 선
솔선 수범</w>
속상 할</w>
속 한</w>
속 임수</w>
속 여서</w>
속 어</w>
속 박</w>
속 내</w>
소 집</w>
소 지</w>
소 수</w>
소 설
소 니</w>
세 요</w>
세 심</w>
세 세</w>
성 치</w>
성 의껏</w>
성 대</w>
설 쳤</w>
설 교</w>
선 택지</w>
선 약</w>
선 명</w>
선 가</w>
서툴 러</w>
서글 픈데</w>
서 술</w>
서 방</w>
서 둘러</w>
생긴 다는</w>
생각 날</w>
생 존</w>
생 일상</w>
생 소</w>
샌 드
샌드 위치</w>
상담 소</w>
상 향</w>
상 한다고</w>
상 주</w>
상 실</w>
상 부</w>
상 반기</w>
상 당</w>
살아 났</w>
살 렸</w>
산 지</w>
산 악회</w>
산 대</w>
삭 히</w>
삭 막</w>
사회 인</w>
사이 즈</w>
사라 졌으면</w>
사귈 까</w>
사귄 다고</w>
사 패</w>
사 우나</w>
사 오</w>
사 연</w>
사 업체</w>
사 셨</w>
사 상</w>
사 방</w>
사 물
사물 함</w>
사 무</w>
사 모님</w>
사 리</w>
사 래</w>
사 라</w>
사 경</w>
삐 졌</w>
삐 뚤
삐 끗</w>
뿌 리</w>
뻘 쭘</w>
뺑 소니</w>
빼앗 겨</w>
빵 점</w>
빨개 져서</w>
빠 진다</w>
빌 미</w>
빈 번</w>
비아냥 거리</w>
비 판</w>
비 자금</w>
비 율</w>
비 워</w>
비 속어</w>
비 랑</w>
붙 임</w>
붙 일</w>
붙 들</w>
불 참</w>
불 이익</w>
불 가
불가 피</w>
분 해서</w>
분 실</w>
분 과</w>
부러워 해</w>
부딪 치</w>
부 품</w>
부 패</w>
부 쳐</w>
부 숴</w>
부 딪</w>
부 디</w>
부 드
부드 럽</w>
볼 품없</w>
볼 수록</w>
볼 링</w>
볼 까봐</w>
본 지</w>
본 의</w>
본 데</w>
복 합</w>
보 호사</w>
보 여
보 미</w>
보 류</w>
보 낸다고</w>
보 내
보내 왔</w>
별 별</w>
별 명</w>
별 도</w>
변함 없이</w>
벼 르</w>
벼 랑</w>
베 이비</w>
베 껴</w>
벙 어리</w>
벗 어났</w>
벗 겨졌</w>
벌 였</w>
번 갈</w>
버려 져</w>
버려 야</w>
버거 웠</w>
버거 워서</w>
버 벅</w>
버 릴지</w>
버 릴
버릴 까봐</w>
백 두
백두 산</w>
배 역</w>
배 상</w>
배 구</w>
방 탄소년단</w>
방 사
밤 잠</w>
밤 새워</w>
밝혀 졌</w>
발 음</w>
발 등</w>
받아들 였</w>
반가 워</w>
반 항심</w>
반 지하</w>
박 힌</w>
박 혔</w>
박 수</w>
바 치</w>
바 래</w>
바 꿀까</w>
바 가지</w>
밀 릴</w>
밀 려나</w>
밀 가루</w>
미더 워</w>
미 쳐서</w>
미 지수</w>
미 웠</w>
미 워지</w>
미 어져</w>
미 숙</w>
뭘 로</w>
뭐 한</w>
뭉 치</w>
물어 본</w>
물려 줘서</w>
물 러</w>
묻 힌</w>
묻 혀</w>
문 책</w>
문 지</w>
문 대</w>
묵묵 히</w>
무서 움</w>
무력 감</w>
무너 질</w>
무 신경</w>
무 소식</w>
무 기</w>
무 관심</w>
못 했었</w>
못 사</w>
못 된</w>
몸 싸움</w>
몰려 오</w>
몰 골</w>
목 욕</w>
목 발</w>
목 걸이</w>
모 컨</w>
모 욕감</w>
명 확히</w>
명 퇴</w>
명 복</w>
명 령</w>
면 식</w>
면 데
면데 면</w>
메 세지</w>
메 모</w>
멍 한</w>
멋 져</w>
멈 췄</w>
멈 출</w>
멈 춘</w>
먹 일</w>
맴 돌</w>
매 매</w>
맡아 보</w>
망 쳐버렸</w>
망 가</w>
말 동무</w>
말 귀</w>
만 행</w>
만 족
만 료</w>
만 년</w>
만 날지</w>
막 힐</w>
막 힌다</w>
막 혔</w>
막 대</w>
마주 쳐서</w>
마음 속</w>
마음 가
마음가 짐</w>
마 친</w>
마 쳐야</w>
마 쳐서</w>
마 늘</w>
립 스틱</w>
리 스크</w>
리 모컨</w>
로 울</w>
로 우</w>
로 그</w>
령 자</w>
렸 으면</w>
려 는지</w>
레 인</w>
라 졌</w>
라 던</w>
라 놓</w>
뜨 려서</w>
뜨 려</w>
뜨 개</w>
뚫 리</w>
떼 쓰</w>
떨어 졌었</w>
떨어 뜨렸</w>
떨 릴</w>
떨 린다</w>
떠넘 긴</w>
떠 맡</w>
떠 드</w>
때 우</w>
딸 애</w>
딸 아</w>
딸 리</w>
딴 짓</w>
딱 딱</w>
따라 다녀</w>
따 져서</w>
따 가
등 등</w>
등 갈
등갈 비</w>
들이 받</w>
들여 가</w>
들어 간다는</w>
들락 날
들 일</w>
들 으러</w>
들 으
들 여야</w>
들 었었는데</w>
들 린</w>
든 요</w>
드 셔서</w>
드 니</w>
뒷 돈</w>
뒤집어 씌우</w>
뒤 돌아서</w>
둘러 댔</w>
될 수록</w>
되 돌아보</w>
동 문</w>
동 락</w>
돌 잔치</w>
돌 봄</w>
돌 릴까</w>
돋보 기
돋보기 안경</w>
돈 타령</w>
독 단</w>
도망 갈</w>
도 모</w>
뎌 서</w>
데 면데면</w>
덩 치</w>
덤 덤</w>
던 진</w>
더 치페이</w>
더 위</w>
더 럽
더 러워</w>
댓 글</w>
대 해선</w>
대 한민국</w>
대 성공</w>
대 면</w>
대 드</w>
대 놓</w>
당 해야</w>
당 해도</w>
당 사자</w>
당 당히</w>
당 기</w>
달려 와</w>
달 린</w>
달 려서</w>
달 랬</w>
단 풍</w>
단 련</w>
닥 칠</w>
다가 갈</w>
다 정다감</w>
다 스리</w>
다 름</w>
다 른데</w>
다 녔
다녔 었</w>
다 급</w>
늦 추</w>
늘 그
늘그 막</w>
느낀 다</w>
느 냐</w>
눈 시울</w>
뇌 리</w>
놨 으면</w>
놨 어야</w>
놔 라</w>
높 였</w>
높 여서</w>
놀라 운</w>
놀 릴까</w>
녹 즙</w>
노여 워하</w>
노여 움</w>
노 하우</w>
넘어 갈</w>
넘어 간</w>
넘 쳐서</w>
넘 겨서</w>
내 조</w>
내 역</w>
내 보내</w>
내 리
내 게서</w>
났 으니</w>
납 골
납골 당</w>
남겨 질</w>
남 용</w>
남 남</w>
날 린</w>
난 대</w>
낙 인</w>
나타 난</w>
나잇 값</w>
나아 질지</w>
나아 져</w>
나빠 할</w>
나눠 야</w>
나 으라고</w>
나 위</w>
나 앉</w>
나 설</w>
나 락</w>
나 대</w>
꾸 역</w>
꼬 치꼬치</w>
껴 서</w>
깨 졌</w>
깨 워서</w>
깨 어났</w>
깎아 내리</w>
까 탈</w>
깃 집</w>
김 장</w>
긴 다는</w>
긴 급</w>
기뻐 할</w>
기다 려서</w>
기 형</w>
기 지</w>
기 자</w>
기 승</w>
기 름</w>
급 격</w>
금 해하</w>
글 렀</w>
근 절</w>
근 교</w>
근 거</w>
극 진히</w>
그 지없</w>
그 제야</w>
궁 금해하</w>
굴 복</w>
구 청</w>
구 월</w>
구 실</w>
구 걸</w>
괴 물</w>
관계 자</w>
관계 없</w>
관 여</w>
관 둬</w>
과 생</w>
과 격</w>
공 통점</w>
공 짜</w>
공 업</w>
공 금</w>
골 반</w>
곧 장</w>
곧 잘</w>
곤 혹</w>
곤 충</w>
고스 란히</w>
고마 울</w>
고리 타분</w>
고 함</w>
고 문</w>
고 른</w>
고 단</w>
고 깃집</w>
계약 금</w>
계 절</w>
계 비</w>
계 란</w>
경영 학</w>
경 품</w>
경 직</w>
경 멸</w>
겼 으니</w>
결 핍</w>
견뎌 야</w>
견뎌 낼</w>
격 차</w>
겠 다고</w>
게으 른</w>
게 라도</w>
겁 쟁이</w>
검 증</w>
걸어 오</w>
걸 려
걸 레</w>
건 축
거슬 리</w>
거리 감</w>
거 든요</w>
개 학</w>
개 인
개 업</w>
개 수</w>
개 미</w>
갓 난
갑상 선암</w>
갑상 샘</w>
감 히</w>
감 흥</w>
감 점</w>
감 쌌</w>
감 성</w>
감 사패</w>
갈 비
갈 라놓</w>
갈 구</w>
간 직</w>
간 지</w>
간 소</w>
간 다면</w>
간 다니</w>
각 박</w>
가져 와</w>
가져 온</w>
가벼 워졌</w>
가까 워져</w>
가 증</w>
가 중</w>
가 운데</w>
가 여
가 불</w>
가 로</w>
가 렸</w>
가 누</w>
힘드 실</w>
힘드 신</w>
힐 링</w>
흘 려
흘려 들</w>
흔 하</w>
흔 들렸</w>
흔 들려</w>
흔 들</w>
흑 자</w>
흐 리</w>
흉 측</w>
휴게 실</w>
휴 진</w>
휴 업</w>
휴 양
휴양 지</w>
휴 가
휴가 비</w>
휘둘 리</w>
휘 말려서</w>
훔 쳐서</w>
후 회
후 생</w>
후 보</w>
후 두
효 능</w>
획 기</w>
회 전</w>
황 급히</w>
황 금</w>
활기 찬</w>
환 우</w>
환 영</w>
환 경
환경 미
환경미 화
환경미화 원</w>
환 갑
환갑 잔치</w>
확 산</w>
화 고</w>
홍 색</w>
호 응</w>
호 언
호언 장담</w>
호 실</w>
형 제
혔 으면</w>
혈 질</w>
혈 육</w>
현 황</w>
현 직</w>
현 지</w>
현 대</w>
현 관문</w>
헤 드
헛 웃음</w>
헛 돈</w>
헛 구역</w>
허 우
허우 적
허우적 거리</w>
허 심
허심 탄
허심탄 회</w>
허 리
허리 띠</w>
행 패</w>
행 정</w>
행 색</w>
핼 쑥</w>
해 체</w>
해 짐</w>
해 진다고</w>
해 줄까</w>
해 준다</w>
해 져
해져 버렸</w>
해 임</w>
해 왔으니</w>
항 생
항생 제</w>
항 공</w>
합 세</w>
한다 거나</w>
한 식</w>
한 데도</w>
한 다기</w>
한 건데</w>
학 예
학예 회</w>
학 문</w>
학 급
학급 비</w>
하 트</w>
하 단</w>
하 다
하다 못해</w>
하 녀</w>
필 품</w>
피부 염</w>
피부 색</w>
피 해야</w>
피 임
피임 약</w>
피 웠으면</w>
피 운
피운 다는</w>
피 라
플 레인</w>
플 러스</w>
플 래
프린 터</w>
프로 그래
프라 이즈</w>
풍 선</w>
풀 릴지</w>
푼 돈</w>
표 출</w>
표 기</w>
포 상금</w>
포 상</w>
포 교</w>
폐 질환</w>
폐 쇄</w>
폐 경기</w>
편집 장</w>
편 협</w>
편 일</w>
페이 퍼</w>
페이 지</w>
퍼뜨 릴까</w>
퍼뜨 려</w>
퍼 마시</w>
패 키
패 자</w>
패 닉</w>
패 거리</w>
팔 목</w>
팔 렸</w>
팔 려</w>
팔 다리</w>
판 매
판 기</w>
파 마</w>
파 리</w>
파 도</w>
파 기</w>
파 구</w>
틀 어지</w>
특 수</w>
트 린</w>
트 려</w>
트 랜
트랜 스
트랜스 젠더</w>
투덜 거리</w>
투덜 거렸</w>
투 족</w>
투 입</w>
퇴 짜</w>
퇴 자</w>
통 한다고</w>
통 치약</w>
통 째</w>
통 원</w>
토 했</w>
토 악질</w>
토 론</w>
토 라
테 이
테이 블</w>
털어 놔</w>
택 했</w>
태어 났으면</w>
태 권</w>
탐 색</w>
탄 력</w>
타 입</w>
타 일러</w>
킨 다고</w>
클래 식</w>
클 까</w>
큰 일날</w>
큰 아버지</w>
큰 가</w>
쿵 쿵</w>
쿠 키</w>
콜 릿</w>
코 치</w>
컬 레
컬레 이터</w>
컨설 팅</w>
컨설 턴트</w>
커뮤니 케이션</w>
커다 란</w>
커 버</w>
캐 물</w>
캐 릭
캐릭 터</w>
칼 퇴근</w>
칭 얼
친 형</w>
친 우</w>
친 오빠</w>
친 아들</w>
친 밀</w>
치우 치</w>
치료 사</w>
치료 법</w>
치 장</w>
치 일</w>
치 인</w>
치 만</w>
치 고</w>
측 은</w>
취 약점</w>
취 객</w>
충 실</w>
출 품</w>
축 축</w>
축 소</w>
축 농
축농 증</w>
추스 르</w>
추 측</w>
추 웠</w>
추 워져서</w>
추 궁</w>
촉 장</w>
초 콜릿</w>
초 인종</w>
초 사</w>
초 밥</w>
초 래</w>
초 과</w>
쳐 지</w>
쳐 나</w>
체 형</w>
체 해서</w>
체 할</w>
청 하</w>
청 원</w>
청 년회</w>
청 결</w>
천 지</w>
천 장</w>
천 식
천식 약</w>
천 성</w>
천 불</w>
천 국</w>
척 추</w>
처가 댁</w>
처 하</w>
챌 까</w>
책임 자</w>
책 정</w>
채 워야</w>
채 식
채 근</w>
찾아 볼까</w>
찾 아내</w>
창 작
창작 력</w>
참 기</w>
찬 밥</w>
차려 줘도</w>
차려 입</w>
차곡 차
차곡차 곡</w>
차 비</w>
차 렸으면</w>
차 가
찢 어졌</w>
찢 긴</w>
찍 혔</w>
쭈 물</w>
쫓 겨서</w>
쫄 쫄</w>
짜 로</w>
징징 대</w>
짓 궂</w>
집 문서</w>
집 구석</w>
짐 짝</w>
질러 진</w>
질 려서</w>
진 짜로</w>
진 땀</w>
진 동</w>
진 다면</w>
진 관</w>
지난 날</w>
지나 칠</w>
지끈 지
지끈지 끈</w>
지 표</w>
지 킨다는</w>
지 진</w>
지 으</w>
지 위</w>
지 웠</w>
지 워</w>
지 우
지 에</w>
지 사</w>
지 비</w>
지 려</w>
증 이</w>
즐 겨야</w>
즉 석
즉석 식품</w>
즈 니스</w>
줬 으니</w>
줘 야
중 증</w>
중 점</w>
중 압
중압 감</w>
중 성</w>
중 도
중도 금</w>
중 개
중개 사</w>
줄어 든다는</w>
줄 줄</w>
줄 인</w>
줄 넘기</w>
준 치</w>
준 다며</w>
준 다더니</w>
주 춤</w>
주 차장</w>
주 자</w>
주 의자</w>
주 워서</w>
주 운</w>
주 우
주우 러</w>
주 요</w>
주 연</w>
주 어지</w>
주 스</w>
주 삿
주삿 바늘</w>
주 먹
주먹 다짐</w>
주 름
주 거
주거 비</w>
좌 천</w>
종 아리</w>
종 사</w>
족 보</w>
조심 조심</w>
조 품</w>
조 종사</w>
조 여
조여 오</w>
조 문</w>
조 문
조문 객</w>
졌 으니</w>
져 야지</w>
제 왕</w>
제 압</w>
제 삼
제삼 자</w>
제 보</w>
제 기</w>
정신 병
정신병 자</w>
정신 력</w>
정 히</w>
정 형</w>
정 할지</w>
정 할</w>
정 전</w>
정 싸움</w>
정 난</w>
정 규</w>
접어 든</w>
절 개</w>
전립 선암</w>
전 했</w>
전 전</w>
전 선</w>
전 생</w>
전 무</w>
전 근</w>
전 국</w>
적 혀</w>
적 어졌</w>
저녁 밥</w>
저녁 때</w>
저 택</w>
저 질러서</w>
저 질</w>
저 마다</w>
저 리
저 건</w>
재수 없</w>
재수 생</w>
재 킷</w>
재 중</w>
재 정난</w>
재 고</w>
재 결
재결 합</w>
장가 보내</w>
장 판</w>
장 터</w>
장 시간</w>
장 사치</w>
장 단</w>
장 나</w>
장 기
장기 근속</w>
잡 힐</w>
잡 힌</w>
잡 이</w>
잠 겨</w>
잠 갔</w>
잘 랐</w>
잘 라야</w>
잔 업</w>
잔 다고</w>
잔 기침</w>
자린 고비</w>
자 판기</w>
자 책감</w>
자 진</w>
자 제력</w>
자 재</w>
자 잘</w>
자 업
자업 자
자업자 득</w>
자 물
자물 쇠</w>
자 문</w>
자 만</w>
자 루</w>
자 랐
자 다</w>
자 그마</w>
잊어 버릴</w>
잊 힐</w>
잊 혀</w>
잉 여</w>
잉 꼬
잉꼬 부부</w>
입 찰</w>
입 버릇</w>
잃어 버릴</w>
일어 난다고</w>
일 투족</w>
일 차</w>
일 찍이</w>
일 자</w>
일 시</w>
일 시
일 부분</w>
일 본</w>
일 면식</w>
일 러서</w>
일 대</w>
일 까봐</w>
일 급</w>
일 교차</w>
일 관</w>
일 거
일거 수
일거수 일투족</w>
인 증</w>
인 쇄</w>
인 사과</w>
인 물</w>
인 드</w>
인 대</w>
인 내심</w>
인 간
인간 미</w>
익 히</w>
익 사</w>
익 명</w>
이뤄 서</w>
이런 다니까</w>
이 쪽</w>
이 율</w>
이 어야</w>
이 슈</w>
이 송</w>
이 쁨</w>
이 쁜</w>
이 뻐서</w>
이 면
이면 지</w>
이 따</w>
이 동
이동 한</w>
이 끼</w>
이 관</w>
의 뢰</w>
응급 차</w>
응 답</w>
음 반</w>
음 료</w>
을 지도</w>
은 퇴자</w>
으셨 을</w>
으셨 던</w>
으셨 는데</w>
으로 써</w>
으 련
으련 만</w>
윤 리</w>
유치 장</w>
유 행
유 지비</w>
유 용</w>
유 복</w>
유 발</w>
유 머
유머 러스</w>
윗 선</w>
위원 장</w>
위 조품</w>
위 서</w>
위 계
위계 질서</w>
월급 쟁이</w>
워 해</w>
웃어 넘기</w>
웃 기</w>
움츠러 들</w>
움직 임</w>
움직 였</w>
움직 여서</w>
움 질</w>
울 리</w>
울 려서</w>
울 고
울고 불</w>
운동 회</w>
운동 복</w>
운 털</w>
운 전자</w>
운 도</w>
운 기</w>
우스 꽝</w>
우러 러</w>
우 선
우선 시</w>
우 물
우물 쭈물</w>
우 르르</w>
우 두
우 니</w>
우 겨</w>
욕 해서</w>
욕 먹</w>
요 점</w>
요 로</w>
요 강</w>
외로 웠을</w>
외동 딸</w>
외 형</w>
외 할아버지</w>
외 웠</w>
외 워</w>
외 딴
외딴 섬</w>
왜 소</w>
왈 칵</w>
완 성
완성 도</w>
와 전</w>
옮 길까</w>
옮 겨졌</w>
올라 간</w>
올 림
올 려도</w>
온 다는</w>
오른 쪽</w>
오르 내리</w>
오래 도록</w>
오래 간
오래간 만</w>
오 정</w>
오 일</w>
오 월</w>
오 를
오를 지</w>
오 롯</w>
예 측</w>
예 절</w>
예 외</w>
예 시</w>
예 쁠</w>
예 쁘
예쁘 장</w>
영 찬</w>
영 입</w>
영 업
영 숙</w>
염 좌</w>
염 자</w>
열 사</w>
연 일</w>
연 대</w>
연 녀</w>
연 기자</w>
역 정</w>
역 전</w>
역 량</w>
여 지</w>
여 사</w>
여 물</w>
여 길까</w>
여 길</w>
에스 컬레이터</w>
에 프</w>
에 세
에세 이</w>
엇 갈
엇갈 린</w>
없 앴</w>
없 앨</w>
업 재</w>
업 무상</w>
엄 습</w>
얽 매
얽매 이</w>
얼 거리</w>
얹 혀</w>
언 어</w>
어째 야</w>
어지 럼
어지럼 증</w>
어지 러운</w>
어지 간</w>
어울 려서</w>
어리 광</w>
어려 워질</w>
어 쨌</w>
어 지르</w>
어 이</w>
어 엿</w>
어 선지</w>
어 깨
어 김없이</w>
어 겼</w>
얕 보</w>
양 호</w>
양 성</w>
얌 체</w>
약 통</w>
약 초</w>
약 장수</w>
약 골</w>
야단 친</w>
야구 팀</w>
야 심</w>
액 정</w>
애 프
애 착</w>
애 완</w>
앞장 섰</w>
앞 일</w>
압 력</w>
알츠하이 머</w>
알아 준</w>
알아 본</w>
알려 준다고</w>
알 바</w>
앉 히</w>
안쓰러 운</w>
안 락
안락 사</w>
안 다는</w>
안 녕</w>
안 기</w>
아픈 게</w>
아이 폰</w>
아쉬 워서</w>
아무 렴</w>
아들 내미</w>
아 트</w>
아 인데</w>
아 우</w>
아 셔서</w>
아 서라도</w>
아 비
아 몬
아몬 드</w>
아 래
아래 층</w>
아 듣</w>
아 녔</w>
쓸 히</w>
쓸 쓸히</w>
쓰러 졌었</w>
쑥 스러웠</w>
쑥 스러워서</w>
쑤 셔서</w>
쏟 아지</w>
썰 렁</w>
썩 인</w>
써 야지</w>
써 가</w>
쌀 쌀</w>
싸 인</w>
싸 웠었</w>
싸 움질</w>
싱 겁</w>
싯 적</w>
십 자수</w>
심 호흡</w>
심 초사</w>
심 쩍</w>
심 상</w>
실 현</w>
실 패자</w>
실 직자</w>
신 호
신 통</w>
신 종</w>
신 용도</w>
신 신
신신 당부</w>
신 분
신분 증</w>
신 들린</w>
식사 량</w>
식 힐</w>
식 판</w>
식 성</w>
식 물</w>
시큰 거리</w>
시끄 러운</w>
시 큰</w>
시 치미</w>
시 일</w>
시 신</w>
시 말
시말 서</w>
시 름
시름 시름</w>
시 내</w>
시 끌
시 간
시간 표</w>
승 소</w>
슬퍼 질</w>
슬 리
슬리 퍼</w>
슬 그
슬그 머니</w>
스카 웃</w>
스러 워진다</w>
스러 운가</w>
스 킨</w>
스 치</w>
스 몰</w>
스 로</w>
쉬 우</w>
숫 기</w>
숨겨 진</w>
숨겨 버렸</w>
숨 쉬</w>
술 병</w>
술 김</w>
술 값</w>
순 종</w>
순 리</w>
숙 지</w>
숙 연</w>
수군 거려서</w>
수 인</w>
수 위</w>
수 요일</w>
수 수
수수 료</w>
수 소문</w>
수 백</w>
수 강</w>
수 감</w>
솟 구쳐</w>
손 재주</w>
손 쓸</w>
손 수</w>
속 해</w>
속 옷</w>
소설 책</w>
소비 자</w>
소모 품</w>
소년 원</w>
소 싯적</w>
소 서</w>
소 사</w>
소 방관</w>
소 독</w>
소 녀</w>
셨 을까</w>
셨 었</w>
셔 츠</w>
섹 스</w>
세상 일</w>
세 포</w>
세 서</w>
세 미
세미 나</w>
세 련</w>
성 품</w>
성 심</w>
성 숙</w>
성 수기</w>
성 분</w>
성 당</w>
성 년
성년 자</w>
섬 세</w>
설 비</w>
설 문지</w>
설 렁</w>
설 렁
설렁 설렁</w>
섣 부른</w>
선 선</w>
선 별</w>
석 차</w>
석 사</w>
서글 펐</w>
서 핑</w>
서 프라이즈</w>
서 클</w>
서 슴</w>
서 서</w>
서 두</w>
서 너</w>
서 가</w>
생긴 다면</w>
생겼 으니</w>
생 필품</w>
생 색
생색 내</w>
생 고생</w>
샘 암</w>
샐 러
샐러 드</w>
새 해</w>
새 치기</w>
새 웠</w>
새 로움</w>
상 할까</w>
상 팔자</w>
삼 수</w>
삼 겹
삼겹 살</w>
살 인
살 수록</w>
살 래</w>
살 뜰
살뜰 히</w>
살 걸</w>
산 업재</w>
산 다</w>
산 골</w>
사이 클</w>
사무 소</w>
사라 질</w>
사고 방식</w>
사 칭</w>
사 진관</w>
사 인데</w>
사 인</w>
사 오정</w>
사 면</w>
사 망
사 도</w>
사 나
사 기업</w>
사 교육</w>
사 과
삐 딱</w>
삐 걱
뾰 족</w>
뽑 혀</w>
뽐 내</w>
뻣 뻣</w>
뻔 하</w>
뺏 긴</w>
뺏 겨서</w>
빼 돌렸</w>
빨 간</w>
빠 릿</w>
빠 릿
빠릿 빠릿</w>
빌려 갈</w>
빈둥 대</w>
빈 도</w>
비 흡연자</w>
비 행</w>
비 친</w>
비 치</w>
비 즈니스</w>
비 중</w>
비 싼
비 방</w>
비 로
비로 소</w>
비 뇨
비뇨 기
비뇨기 과</w>
비 나</w>
블 로그</w>
브 로
뷔 페</w>
붕 대</w>
불안 해할</w>
불 입</w>
불 똥</w>
불 과</w>
불 가</w>
분 홍색</w>
분 할</w>
분 풀이</w>
분 투</w>
분 주</w>
분 발</w>
분 만
분만 실</w>
분 리
분리 수거</w>
분 류</w>
부추 긴</w>
부추 기</w>
부러워 했</w>
부러 지</w>
부러 져</w>
부러 움</w>
부딪 쳐</w>
부끄러 워
부끄러 운지</w>
부 풀려서</w>
부 풀</w>
부 지</w>
부 주의</w>
부 적절</w>
부 재중</w>
부 임</w>
부 수</w>
부 사수</w>
부 른
부른 다고</w>
부 녀</w>
봤 으니</w>
봐 야겠어</w>
봐 라</w>
봐 둔</w>
봉 투</w>
봉 지</w>
봉 양</w>
볼 려고</w>
본 사</w>
본 다면</w>
본 다는</w>
본 다</w>
복 학생</w>
복 리</w>
보잘것 없이</w>
보살 펴
보람 차</w>
보 충</w>
보 일지</w>
보 기</w>
보 건</w>
병 환</w>
병 통치약</w>
병 약</w>
병 시중</w>
병 수</w>
병 명</w>
별 말</w>
변 함</w>
변 할</w>
변 찮</w>
변 심</w>
변 변찮</w>
변 덕</w>
변 기통</w>
베 푸</w>
베 낀</w>
벌 칙</w>
벌 여서</w>
벌 어
벌 려야</w>
벌 렁</w>
벌 떡</w>
벌 기</w>
번 창</w>
번 졌</w>
백 조</w>
백 수인</w>
백 세</w>
백 기</w>
배 터리</w>
배 송</w>
배 부르</w>
배 꽁초</w>
방사 선</w>
방광 암</w>
방 출</w>
방 전</w>
방 면</w>
방 도</w>
밥 풀</w>
밥 벌이</w>
밤 하늘</w>
발 톱</w>
발 짝</w>
발 송</w>
발 랐</w>
발 길</w>
발 걸음</w>
발 가락</w>
받 아
반신 욕</w>
반가 워서</w>
반 주</w>
반 박</w>
반 려
반려 자</w>
반 고</w>
박 질
박 사</w>
박 봉</w>
박 대</w>
바 이
바 빠져서</w>
바 른
민 첩</w>
민 수</w>
민 낯</w>
믹 스</w>
미끄러 지</w>
미끄러 졌</w>
미 터</w>
미 칠까</w>
미 울</w>
미 운털</w>
미 심쩍</w>
미 식</w>
미 소</w>
미 성년자</w>
미 묘</w>
미 룬</w>
미 납</w>
므 로</w>
뭔 데</w>
물어 뜯</w>
물려 줬</w>
물려 줘야</w>
물 주</w>
물 정</w>
물 을까</w>
물 으면</w>
물 불</w>
물 림</w>
물 러서</w>
물 놀이</w>
문제 아</w>
문 전</w>
문 밖</w>
문 구
문구 점</w>
묶 여</w>
무서 워져</w>
무서 울</w>
무거 워서</w>
무 진</w>
무 직</w>
무 장</w>
무 식</w>
무 렵</w>
무 뎌</w>
무 덤덤</w>
무 감각</w>
묘 하</w>
못 해도</w>
몸뚱 이</w>
몸 조리</w>
몸 살
몰아 세우</w>
몰라 보</w>
몰 아주</w>
몰 상식</w>
몰 린</w>
모아 놨</w>
모 태</w>
모 셨</w>
모 발</w>
모 나</w>
모 기지</w>
명 함</w>
명 세서</w>
명 목</w>
면 제</w>
멘 토</w>
메 뚜
메뚜 기</w>
멀 뚱
매달 려</w>
매 입</w>
매 수</w>
맞장 구쳐</w>
맞 혀</w>
망설 임</w>
망가 뜨려</w>
망 가져</w>
맛 보</w>
말 이</w>
말 벗</w>
말 릴</w>
말 려야</w>
말 려도</w>
말 라서</w>
말 끝</w>
만 히</w>
만 져서</w>
만 병통치약</w>
만 병</w>
만 류</w>
만 감</w>
막 중</w>
막 연히</w>
막 바지</w>
막 걸리</w>
마주 칠까봐</w>
마 셨으면</w>
마 셔도</w>
마 사지</w>
마 르</w>
마 려
마 득</w>
림 돌</w>
린 데</w>
리 키</w>
리 더</w>
를 수록</w>
로 잡</w>
로 써</w>
로 선</w>
로 봇</w>
력 자</w>
레 임</w>
런 스</w>
래 고래</w>
랑 거리</w>
랄 지</w>
라 이</w>
라 디
라디 오</w>
라 길래</w>
뜯 어
뜨거 워</w>
뜨거 운</w>
뛰어 오</w>
뛰어 다녔</w>
뛰어 놀</w>
뚝 딱</w>
뚜 껑</w>
또 는</w>
떼 먹</w>
떨 떠
떨떠 름</w>
떤 다고</w>
떠넘 길</w>
떠나 보낼</w>
떠 밀</w>
떠 들
떠들 썩</w>
떠 내려갔</w>
떠 나간</w>
때 론</w>
따라 준</w>
따라 와</w>
따가 워</w>
따 져</w>
따 른</w>
따 듯</w>
따 가운</w>
등 지</w>
들어 온다고</w>
들락날 락</w>
들 킬까봐</w>
들 으며</w>
들 먹이</w>
들 렀</w>
들 뜨</w>
들 들</w>
들 겨</w>
드러 나</w>
드러 기</w>
드 신</w>
드 릴지</w>
뒹 굴
뒹굴 뒹굴</w>
뒷 일</w>
뒷 얘기</w>
뒷 수습</w>
뒷 방</w>
뒷 골</w>
뒤 져서</w>
뒤 떨어진</w>
뒤 떨어져</w>
뒀 으면</w>
둥 글</w>
둘러 야</w>
둔 다고</w>
둔 다</w>
두려 워졌</w>
두려 울</w>
두근 거리</w>
두근 거려서</w>
두 지</w>
두 리</w>
두 루
두 들겨</w>
두 드러기</w>
두 기</w>
된 통</w>
된 단</w>
되 려</w>
되 레</w>
됐 을까</w>
동 종</w>
동 원</w>
동 력</w>
동 고
동고 동락</w>
동 갑
동갑 내기</w>
돕 지</w>
돌아 올까</w>
돌아 봐</w>
돌려 도</w>
돌 파구</w>
돌 발</w>
돋 친</w>
돈 줄</w>
돈 거래</w>
독 촉장</w>
도와 줘도</w>
도와 줄지</w>
도망 쳐</w>
도둑 맞</w>
도둑 놈</w>
도 서실</w>
도 라지</w>
데려 와</w>
데 기</w>
덮 어
덥 석</w>
덤벙 대</w>
덤벙 거리</w>
덤 벼
덕 택</w>
더러 워져서</w>
더 래</w>
더 디</w>
더 구나</w>
댄 다고</w>
대리 점</w>
대 청소</w>
대 소사</w>
대 머리</w>
당 구
당구 장</w>
당 겨</w>
답 형</w>
담 요</w>
담 아듣</w>
담 배꽁초</w>
담 도</w>
달려 왔</w>
달려 와서</w>
달려 온</w>
달려 오</w>
달려 갔</w>
달 릴</w>
달 렸</w>
달 력</w>
달 랑</w>
달 걀
달걀 말이</w>
단 정히</w>
단 위</w>
단 력</w>
단 답형</w>
닥 달</w>
다이 아몬드</w>
다시 금</w>
다독 이</w>
다녀 와도</w>
다녀 야지</w>
다녀 가</w>
다가 갔</w>
다 혈질</w>
다 칠까</w>
다 쳤으면</w>
다 쳐도</w>
다 잖아</w>
다 솜</w>
다 를까</w>
다 든지</w>
다 느니</w>
다 곤</w>
다 거나</w>
니 다</w>
늘어 져서</w>
늘 릴</w>
는 대서</w>
는 다며</w>
는 다는데</w>
느껴 진다</w>
느껴 본</w>
느 려졌</w>
느 냐며</w>
느 냐는</w>
눌 러서</w>
눌 러</w>
눈치 챘</w>
눈 곱</w>
눈 가</w>
누 우</w>
뇌 물</w>
놨 었</w>
놨 던</w>
놨 다고</w>
놔 뒀</w>
놔 도</w>
놓 쳐</w>
높 여</w>
농 사
놀러 왔</w>
놀라 워</w>
놀 린</w>
논 하</w>
논 의</w>
논 다</w>
녹 록</w>
노름 판</w>
노동 력</w>
노 심초사</w>
노 쇠</w>
노 랗</w>
년 도</w>
넘어 와서</w>
넘 쳤</w>
넘 쳐나</w>
넘 보</w>
넘 길</w>
넘 겨야</w>
냉 면</w>
냉 랭</w>
냉 동
냉 담</w>
내려 졌</w>
내려 온</w>
내려 다</w>
내려 간다고</w>
내 향</w>
내 편
내 팽개
내 치</w>
내 세울</w>
내 서</w>
내 보</w>
내 막</w>
내 다보</w>
내 과</w>
낭 송</w>
납 작</w>
남겨 졌</w>
남겨 둔</w>
남 친</w>
남 지</w>
남 부럽</w>
남 길</w>
난 장판</w>
난 이</w>
난 다면</w>
나타 날</w>
나온 다면</w>
나온 다는데</w>
나온 다네</w>
나아 졌으면</w>
나아 가</w>
나 질</w>
나 지</w>
나 으면</w>
나 야</w>
나 아야</w>
나 신</w>
나 무</w>
나 만</w>
나 른</w>
나 도</w>
나 다니</w>
나 니</w>
나 고</w>
낌 새</w>
끼 친</w>
끼 쳤</w>
끝 마치</w>
끝 났으니</w>
끌어 들인</w>
끌 려</w>
끊 어진</w>
끈 끈</w>
끈 기</w>
끄 떡</w>
꿔 준</w>
꿈꿔 온</w>
꿈 꿔</w>
꾸 며
꾸 릴</w>
꾸 렸</w>
꼬 였</w>
꼬 여서</w>
껍 데기</w>
깨 우
깨 끗
깎 였</w>
까 요</w>
까 맣</w>
까 마득</w>
김 치
김 부장</w>
길 이</w>
길 고양이</w>
기다려 줄</w>
기다 린</w>
기 획
기 혼</w>
기 준치</w>
기 우</w>
기 야</w>
기 안</w>
기 성</w>
기 본
기 보단</w>
기 만</w>
기 독
기 금</w>
급 해져</w>
급 락</w>
급 등</w>
금 실</w>
금 식</w>
금 반지</w>
금 메달</w>
글 자</w>
근 로</w>
근 검
근검 절약</w>
그리 도</w>
그럴 지</w>
그럴 수록</w>
그러 지</w>
그러 다가</w>
그래 야지</w>
그 치만</w>
그 저께</w>
그 새</w>
그 려</w>
그 레
귀여 워</w>
귀 한</w>
귀 하</w>
귀 중</w>
귀 담아듣</w>
귀 국</w>
권 해</w>
권 한</w>
권 장</w>
권 력</w>
군 요</w>
군 분투</w>
국 영</w>
국 물</w>
구 시대</w>
구 상</w>
구 별</w>
구 단</w>
구 강</w>
교통 비</w>
교 외</w>
교 당</w>
괴롭 혔으면</w>
관리 인</w>
관 해선</w>
관 상</w>
과 시</w>
과 부하</w>
과 다</w>
과 금</w>
공 포</w>
공 예</w>
공 연</w>
공 백기</w>
공 단</w>
공 과금</w>
곱 씹</w>
곰 이</w>
곰 곰이</w>
골프 채</w>
골프 장</w>
골골 대</w>
골 인</w>
골 려</w>
골 골</w>
곤두 박질
곤 욕</w>
곤 경</w>
고 픈</w>
고 쳤으면</w>
고 쳐
고 질병</w>
고 장나</w>
고 용
고 야</w>
고 물</w>
고 리</w>
고 령자</w>
고 래고래</w>
고 된</w>
고 되</w>
고 군분투</w>
고 갈</w>
계획 안</w>
계 층</w>
계 열사</w>
계 서</w>
경 황</w>
경 위서</w>
경 운기</w>
경 련</w>
결혼 반지</w>
결과 지</w>
결 산</w>
결 단</w>
겨 져</w>
게을 러</w>
겉 보기</w>
검 버섯</w>
걸음 걸이</w>
걸 쳤</w>
걸 신들린</w>
걸 림돌</w>
걸 린다고</w>
걸 린다</w>
걸 린
걸 렸
걸 러</w>
걸 기</w>
건 사</w>
건 드릴까</w>
건 드려서</w>
건 드려</w>
거 역</w>
거 뜬</w>
거 길</w>
객 관
개인 주의</w>
개 성</w>
개 강</w>
강 행</w>
강 원
강 압</w>
강 릉</w>
갔다 왔</w>
갔다 오</w>
갓난 아기</w>
갓 난</w>
갑상 샘암</w>
감 정싸움</w>
감 염자</w>
감 기약</w>
갈비 찜</w>
갈 까봐</w>
간경 변</w>
간 판</w>
간 지
가져다 준</w>
가여 워</w>
가르 친</w>
가로 챈</w>
가까워 진다는</w>
가까 워져서</w>
가까 스로</w>
가 채점</w>
가 졌었</w>
가 엾</w>
가 압류</w>
가 리키</w>
가 랑이</w>
가 눌</w>
힘 없이</w>
힘 듦
힘듦 을</w>
힘 겨워</w>
힐 끔</w>
힐 끔
힐끔 힐끔</w>
히 트</w>
히 터</w>
히 스테
히스테 리</w>
희생 자</w>
희 일
희일 비</w>
희 미</w>
흥 차
흥차 사</w>
흥 얼거리</w>
흡 족</w>
흘러 도</w>
흘 러서</w>
흔 쾌</w>
흔 들
흐 른</w>
흐 느끼</w>
흉 하</w>
흉 볼</w>
흉 내</w>
휴게 소</w>
휴 무</w>
휘둘 렀</w>
휘 말리</w>
휘 두
휘두 른</w>
휘 감</w>
훤 칠</w>
훈 훈</w>
후회 막심</w>
후두 염</w>
후 줄
후줄 근</w>
후 임자</w>
후 년</w>
후 과</w>
효 정</w>
횡 단
횡단 보도</w>
횟 집</w>
회의 원</w>
회 한</w>
회 포</w>
회 원
회원 권</w>
회 사채</w>
회 감</w>
황 되</w>
활 짝</w>
활 약</w>
활 달</w>
환 호</w>
환 호
환호 성</w>
확 답</w>
확 고</w>
화 학</w>
화 투</w>
화 책</w>
화 창</w>
화 이트</w>
화 끈
홈 페이지</w>
홀 랑</w>
홀 대</w>
혼 인</w>
혼 사</w>
혼 난다</w>
호 프
호프 집</w>
호 칭</w>
호 주</w>
호 불
호불 호</w>
호 기</w>
혜 인</w>
형제 간</w>
형 차</w>
형 아</w>
형 사</w>
협 회</w>
협 착
협착 증</w>
협 점</w>
협 의</w>
혈 연</w>
현 역</w>
현 식</w>
현 수
현수 막</w>
현 미
현미 밥</w>
혁 신
혁신 안</w>
혀 질까</w>
혀 왔</w>
헷갈 렸</w>
헬 기</w>
헤어 졌으면</w>
헤드 헌
헤드헌 터</w>
헛디 뎠</w>
헛디 뎌서</w>
헛 소리</w>
헛 구역질</w>
험 학습</w>
험 하</w>
험 부담</w>
헉 헉
허 황되</w>
허 하</w>
허 투
허투 루</w>
허 탈감</w>
허 식</w>
허 수
허수 아비</w>
허 물
허물 없이</w>
허 무
허무 맹
허무맹 랑</w>
허 례
허례 허식</w>
허 드
허드 렛
허드렛 일</w>
허 니
허니 문</w>
향 후</w>
향 하</w>
향 기</w>
행 태</w>
행 착오</w>
행 운
행운 아</w>
행 각</w>
했 었
했 다니까</w>
햇 살</w>
햄 스
햄스 터</w>
핸드 백</w>
해 한</w>
해 줄
해줄 망정</w>
해 제</w>
해 왔었</w>
해 본</w>
해 변</w>
해 무
해무 익</w>
해 로울</w>
해 드릴</w>
해 드려야</w>
해 둬야</w>
해 낼지</w>
해 고도</w>
항 암
항암 제</w>
항 공업</w>
합 치</w>
합 창</w>
함 흥차사</w>
함 정</w>
할 려면</w>
할 당</w>
할 당
할 껄</w>
할 까요</w>
할 게</w>
한다 든지</w>
한다 니깐</w>
한 판</w>
한 통
한통 속</w>
한 탄</w>
한 층</w>
한 옥</w>
한 약재</w>
한 시</w>
한 담</w>
한 다더니</w>
한 다는군</w>
한 눈</w>
한 글</w>
한 국인</w>
한 강</w>
한 가득</w>
학 습
학습 지</w>
학 생
학생 회</w>
하나 님</w>
하 혈</w>
하 향</w>
하 체</w>
하 청</w>
하 차</w>
하 직</w>
하 자</w>
하 인</w>
하 원</w>
하 우
하우 스</w>
하 와
하와 이</w>
하 염
하염 없이</w>
하 얀</w>
하 심정</w>
하 대</w>
하 늘
하늘 나라</w>
하 긴</w>
핑 카</w>
핑 몰</w>
필 까</w>
핀 잔
핀잔 주</w>
피아 드</w>
피부 병</w>
피라 미
피라미 드</w>
피 트</w>
피 울까</w>
피 소
피소 드</w>
피 력</w>
피 나</w>
피 겨</w>
플래 너</w>
프린 트</w>
프로그래 밍</w>
풍 우</w>
풍 성</w>
풍 부</w>
품 권</w>
풀 어졌</w>
풀 릴까</w>
풀 린</w>
푸 대접</w>
표 회</w>
표 하</w>
표 절</w>
폴 립</w>
폴 더</w>
폭 풍우</w>
폭 음</w>
포 토
포토 샵</w>
포 진</w>
포 장</w>
포 인
포인 트</w>
포 옹</w>
폐 합</w>
폐 인</w>
폐 가</w>
평생 토록</w>
평생 직장</w>
평 탄</w>
평 점</w>
평 수</w>
평 불만</w>
펼 쳐</w>
편집 자</w>
편 해야</w>
편 한데</w>
편 파</w>
편 집</w>
편 법</w>
편 리</w>
펑 크</w>
퍼트 린</w>
퍼 지</w>
퍼 스</w>
팽 이관</w>
패키 지
패키지 여행</w>
패 가
패가 망신</w>
팡 질
팡질 팡</w>
팝 콘</w>
팔 아먹</w>
판매 자</w>
판 사</w>
판 단력</w>
파 토</w>
파 일
파일 럿</w>
파 렴
파 괴</w>
파 게
파게 티</w>
팀 목</w>
틸 지</w>
티 켓</w>
티 오</w>
티 나</w>
티 끌</w>
틈틈 히</w>
틀 릴까</w>
틀 릴</w>
틀 린다</w>
특 목
특목 고</w>
트로 피</w>
트레 이
트레이 닝</w>
트 리</w>
트 렸</w>
트 레</w>
트 라인</w>
트 남</w>
트 기</w>
튈 까</w>
퉁 퉁</w>
툰 다고</w>
투덜 거려</w>
투 철</w>
투 자처</w>
투 여</w>
투 고</w>
퇴 보</w>
통 합</w>
통 할지</w>
통 한</w>
통 폐합</w>
통 통</w>
통 탄</w>
통 일</w>
통 역</w>
통 신문</w>
통 나</w>
토라 져서</w>
토 해냈</w>
토 해</w>
토 라지</w>
토 닥
토닥 이</w>
털 모자</w>
터 치</w>
터 진</w>
터 줬</w>
터 운</w>
터 뜨린</w>
태 워서</w>
태 우</w>
태 만</w>
태 그</w>
태 권
태권 도</w>
탕 먹</w>
탑 승</w>
탐 방</w>
탈 출
탈출 구</w>
탈 법</w>
탄 탄
탁 기</w>
타 협점</w>
타 자</w>
타 일
타일 러야</w>
타 이어</w>
타 이
타이 밍</w>
타 운</w>
타 당</w>
키 워도</w>
키 오
키오 스</w>
클 지</w>
클 수록</w>
클 리
클리 닉</w>
클 레임</w>
클 라우
클라우 드</w>
클 라
클라 이
클라이 언
클라이언 트</w>
큰 지</w>
큰 며느리</w>
큰 데</w>
크 족</w>
크 서클</w>
크 릴</w>
크 린</w>
크 루
크루 즈</w>
크 로</w>
큐 어</w>
쾌 적</w>
콩 알</w>
콩 나물</w>
코 인</w>
코 웃음</w>
코 빼
코빼 기</w>
코 딩</w>
켰 으니</w>
켜 안</w>
컴 컴</w>
커뮤니 티</w>
커 트라인</w>
커 니</w>
캥 거
캥거 루</w>
캠 핑카</w>
캠 퍼스</w>
캐 스
캐스 팅</w>
카카 오</w>
카 스</w>
카 롱</w>
칭얼 대</w>
칫 솔</w>
침 해</w>
침 개</w>
칠 칠</w>
칠 지</w>
친 했었</w>
친 해져</w>
친 한데</w>
친 지</w>
친 자식</w>
친 부모</w>
치근덕 대</w>
치 지</w>
치 중</w>
치 주</w>
치 졸</w>
치 워야</w>
치 욕</w>
치 였</w>
치 심</w>
치 수</w>
치 를</w>
치 려</w>
취 했</w>
취 식</w>
취 감</w>
춰 야</w>
충 치</w>
충 실
충실 하</w>
충 성심</w>
충 만</w>
충 동</w>
출 처</w>
출 증</w>
출 연</w>
출 력</w>
출 까</w>
추슬 러야</w>
추스 른</w>
추 워</w>
추 우</w>
추 악</w>
추 세</w>
추 모</w>
최저 가</w>
최 상</w>
최 대</w>
총 명</w>
초 풍</w>
초 점</w>
초 월</w>
초 연</w>
초 경</w>
쳤 으나</w>
쳐 놨</w>
쳇 바퀴</w>
체 험학습</w>
체 조</w>
체 인
체인 점</w>
체 복</w>
체 만
체만 체</w>
체 로</w>
체 력
체력 장</w>
체 대</w>
체 격</w>
체 감</w>
청소 부</w>
청소 기</w>
청 해야</w>
청 천
청천 벽
청천벽 력</w>
청 자</w>
청 이</w>
청 와
청와 대</w>
청 렴</w>
청 각</w>
첨 부</w>
철 학</w>
천 하</w>
천 재</w>
천 생
천생 연
천생연 분</w>
천 대</w>
천 금</w>
처 져</w>
처 신</w>
챙겨 도</w>
챙 긴다는</w>
채식 주의</w>
채 워
채워 줄</w>
채 업자</w>
채 기</w>
찾아 뵈</w>
찾아 봐</w>
찾 기</w>
창 작</w>
창 구</w>
참 혹</w>
참 신</w>
참 나</w>
참 관</w>
찮 은</w>
찬 스</w>
찬 바람</w>
찬 다</w>
착 한데</w>
차려 져</w>
차가 워진</w>
차 트</w>
차 일</w>
차 인</w>
차 올라</w>
차 기</w>
차 감</w>
찢 어져서</w>
찢 기</w>
찔 려서</w>
찔 렀</w>
찔 러</w>
찌 질</w>
찌 지</w>
찌 뿌
찌 릿
찌 르</w>
찌 든</w>
찌 그러
찌그러 진</w>
쫓아 다녀</w>
쫓겨 났</w>
쫓겨 날지</w>
쫓 겨</w>
쫄 딱</w>
쪼 개</w>
쪘 었</w>
쩔 뚝
쩔뚝 이</w>
쨌 든</w>
짼 데</w>
째 려
짤 릴</w>
짝 짝</w>
짜 장면</w>
짜 릿</w>
짜 기</w>
징그러 웠</w>
징 조</w>
짓 누르</w>
짓 가랑이</w>
집어 던졌</w>
질러 도</w>
질 린다</w>
질 린</w>
질 리</w>
질 는지</w>
질 기</w>
질 근
질근 질</w>
진 하</w>
진 통제</w>
진 취</w>
진 저리
진저리 나</w>
진 데</w>
진 다며</w>
진 가</w>
직 도</w>
직 계</w>
지켜 줬</w>
지켜 준</w>
지켜 야지</w>
지지 리</w>
지우 개</w>
지낸 다는</w>
지끈 거리</w>
지겨 워하</w>
지겨 운</w>
지 품</w>
지 퍼</w>
지 털</w>
지 자체</w>
지 으면</w>
지 워서</w>
지 안</w>
지 소</w>
지 사장</w>
지 분</w>
지 민</w>
지 물</w>
지 린
지린 내</w>
지 름
지름 길</w>
지 네</w>
지 나왔</w>
지 근</w>
지 고기</w>
지 개</w>
지 가</w>
증 시</w>
즐거 운가</w>
즐 겨
즉 각</w>
쥐어 짜</w>
쥐어 뜯</w>
줘야 겠다고</w>
중 한</w>
중 학</w>
중 퇴</w>
중 천</w>
중 절</w>
중 이
중이 염</w>
중 복</w>
중 병</w>
중 고</w>
중 고
중고 차</w>
중 견</w>
줏 대</w>
줍 음</w>
줄 인
줄인 다고</w>
줄 걸</w>
준 단</w>
준 다네</w>
죽 인</w>
죽 였</w>
주름 살</w>
주 최</w>
주 재
주재 원</w>
주 원인</w>
주 워</w>
주 어져서</w>
주 범</w>
주 무르</w>
주 만</w>
주 례</w>
주 니</w>
주 거</w>
좌 왕</w>
좌 불안
좌불안 석</w>
좋아 한다니</w>
종 용</w>
종 말</w>
종 료</w>
좁 히</w>
졸업 장</w>
졸라 매</w>
졸 지</w>
졸 여서</w>
졸 릴</w>
졸 려</w>
존 대</w>
족 쇄</w>
조 회</w>
조 폭</w>
조 짐</w>
조 장</w>
조 울
조울 증</w>
조 성</w>
조 산</w>
조 목</w>
조 목
조목 조목</w>
조 대</w>
조 달</w>
졌 으니까</w>
져 버렸으면</w>
져 내릴</w>
제 하</w>
제 조</w>
제 일
제일 가</w>
제 이</w>
제 술</w>
제 목</w>
정 해졌</w>
정 액</w>
정 사정</w>
정 보
정 민</w>
정 든</w>
정 대</w>
정 당
정당 방
정당방 위</w>
정 나
정나 미</w>
젓 이</w>
접 해서</w>
접 공</w>
점 포</w>
절 해고도</w>
절 초풍</w>
절 제술</w>
절 박</w>
전화 벨</w>
전문 직</w>
전 할까</w>
전 취식</w>
전 지</w>
전 조</w>
전 제품</w>
전 적</w>
전 쟁
전쟁 터</w>
전 업</w>
전 시
전시 회</w>
전 송</w>
전 셋집</w>
전 복
전복 죽</w>
전 면</w>
전 등</w>
전 단지</w>
적 정</w>
적 이</w>
적 응
적 으로</w>
적 립</w>
적 나라</w>
저녁 상</w>
저 하</w>
저 랬</w>
저 놈</w>
저 게</w>
재 학</w>
재 충전</w>
재 천</w>
재 처리</w>
재 물</w>
재 건</w>
잦 아
잦아 진</w>
장가 갔</w>
장 황</w>
장 학생</w>
장 치</w>
장 어</w>
장 르</w>
장 려
장 단점</w>
잡아 당기</w>
잡 힐
잡 혀
잠 잠</w>
잠 잘</w>
잠 자리</w>
잠 꼬
잠꼬 대</w>
잘 생기</w>
작업 장</w>
작 전</w>
작 은
작 심
작심 삼
작심삼 일</w>
작 동</w>
자본 주의</w>
자본 금</w>
자린 데</w>
자랐 으면</w>
자궁 암</w>
자궁 경
자궁경 부
자궁경부 암</w>
자 회</w>
자 해</w>
자 투리</w>
자 택</w>
자 장면</w>
자 욱</w>
자 습
자습 실</w>
자 수
자수 성가</w>
자 산
자산 관리</w>
자 본</w>
자 반</w>
자 릿
자릿 수</w>
자 랑거리</w>
자 랄</w>
자 락</w>
자 더니</w>
자 더군</w>
자 길</w>
자 긴</w>
자 기
자 금
자금 난</w>
자 각</w>
잊어 버릴까</w>
잊 혀질까</w>
잉 보호</w>
잇 감</w>
입 혔</w>
입 혀서</w>
입 학식</w>
입 지</w>
입 주민</w>
입 실</w>
입 수</w>
입 꼬리</w>
입 김</w>
입 견</w>
임원 직</w>
임 했</w>
임 해</w>
임 장</w>
임 승
임승 차</w>
임 방</w>
임 박</w>
일으 킬</w>
일으 켰</w>
일어 났었</w>
일어 날지</w>
일시 금</w>
일 희일비</w>
일 할</w>
일 주년</w>
일 주</w>
일 종</w>
일 정
일 전</w>
일 임</w>
일 어</w>
일 솜씨</w>
일 생
일생 일대</w>
일 비
일비 재</w>
일 반
일반 인</w>
일 만</w>
일 리</w>
일 로</w>
일 그러
일 궈
일 감</w>
일 가
일가 친척</w>
인사 말</w>
인기 투표</w>
인기 척</w>
인 후과</w>
인 파</w>
인 척</w>
인 적</w>
인 어</w>
인 심</w>
인 쇄
인쇄 물</w>
인 생
인생 무상</w>
인 배</w>
인 명</w>
인 구</w>
인 감
인감 도장</w>
이해 관계</w>
이어 질</w>
이어 졌</w>
이비 형</w>
이비 인후과</w>
이뤄 진</w>
이뤄 지지</w>
이뤄 지는</w>
이루 어
이루어 진다는</w>
이러 실</w>
이래 서야</w>
이 커</w>
이 치</w>
이 주민</w>
이 점</w>
이 인</w>
이 유라</w>
이 용
이용 자</w>
이 억</w>
이 상
이 사장</w>
이 불</w>
이 바지</w>
이 모
이모 작</w>
이 면</w>
이 른
이른 바</w>
이 라니</w>
이 드라
이드라 인</w>
이 단</w>
이 내</w>
이 끈</w>
이 끄</w>
이 긴</w>
이 기
이기 주의</w>
이 겨서</w>
의지 박
의지박 약</w>
의지 국</w>
의기 양
의기양 양</w>
의 혹</w>
의 해서</w>
의 젓</w>
의 예
의예 과</w>
의 연</w>
의 아</w>
의 실</w>
의 식
의 서</w>
의 별</w>
의 무
의무 감</w>
의 류</w>
응 할</w>
응 시</w>
응 모</w>
음 악회</w>
음 악
음악 가</w>
음 감</w>
은 편</w>
은 인</w>
은 연
은연 중</w>
은 둔</w>
으셨 을까</w>
으 시
으시 는데</w>
으 셔야</w>
으 리라</w>
으 름
으름 장</w>
으 라면서</w>
으 라며</w>
융 자</w>
육 통</w>
육 원</w>
육 부</w>
유행 병</w>
유언 비
유언비 어</w>
유 흥</w>
유 흥
유 익</w>
유 연</w>
유 사</w>
유 방</w>
유 령</w>
유 동</w>
유 대감</w>
유 달리</w>
윗 몸</w>
윈 도</w>
위 험부담</w>
위 임장</w>
위 원</w>
위 스</w>
위 기
위기 감</w>
위 궤양</w>
위 경련</w>
웬 만큼</w>
웨 어</w>
월 등</w>
월 등
월등 히</w>
월 드</w>
월 드
월드 컵</w>
월 경</w>
월 간지</w>
원 액</w>
원 만히</w>
워 라</w>
워 놨</w>
웅 장</w>
웃 겼</w>
움츠러 드</w>
움직 여야</w>
울 려</w>
울 렁거리</w>
운 서</w>
운 다고</w>
우스 웠</w>
우두 커니</w>
우 회전</w>
우 치</w>
우 쭐</w>
우 월</w>
우 왕
우왕 좌왕</w>
우 여
우여 곡
우여곡 절</w>
우 엉</w>
우 아</w>
우 실</w>
우 시</w>
우 셨</w>
우 량
우량 주</w>
우 겨우</w>
용 지물</w>
용 접공</w>
용 음악</w>
욕 한</w>
욕 심
욕심 내</w>
욕 실</w>
욕 구</w>
욕 구
욕구 불만</w>
요 약</w>
요 만큼</w>
요 령</w>
요 구
요 건</w>
외 한</w>
외 투</w>
외 워야</w>
외 양</w>
외 아들</w>
외 려</w>
외 랑</w>
외 교
외교 관</w>
외 곽</w>
왕 이면</w>
왔 을까</w>
왔 다</w>
완 견</w>
와이 셔츠</w>
와 선</w>
와 서야</w>
옹 알
옹알 이</w>
옷 맵
옷맵 시</w>
올림 피아드</w>
올려 달라</w>
올라 와야</w>
올라 올</w>
올라 갔으면</w>
올 릴까</w>
올 가
올가 미</w>
온 순</w>
온 돌</w>
온 다니까</w>
온 다니</w>
온 다는데</w>
옥 자</w>
오르 락
오르락 내리
오르락내리 락</w>
오르 간</w>
오 판</w>
오 자</w>
오 염</w>
오 순
오순 도
오순도 순</w>
오 붓</w>
오 라고</w>
오 라</w>
오 냐</w>
오 냐
오냐 오냐</w>
예뻐 졌</w>
예 치</w>
예 의지국</w>
예 식</w>
예 쁜지</w>
예 보</w>
옆 방</w>
영양 사</w>
영 혼</w>
영 웅</w>
영 양</w>
영 민</w>
영 구</w>
였 으니</w>
였 었</w>
엿 들</w>
열 세</w>
열 릴</w>
열 로</w>
열 려서</w>
열 기</w>
연락 도</w>
연 속
연속 극</w>
연 구
연구 원</w>
연 골</w>
연 가</w>
역 효과</w>
역 해서</w>
역 무원</w>
역 꾸역</w>
여행 가</w>
여 차
여 잔데</w>
여 우</w>
여 야지</w>
여 서가</w>
여 린</w>
여 긴</w>
엠 에프</w>
에어 로
에어로 빅</w>
에 피소드</w>
에 이비형</w>
에 러</w>
에 도</w>
엎 질러진</w>
엎 어졌</w>
엎 어져서</w>
엎 드려</w>
엉 터리</w>
없 앤</w>
업 신
업 소</w>
업 거리</w>
엄 한데</w>
엄 한</w>
엄 만데</w>
얽 혀</w>
얼 음</w>
얻 어
얻어 맞</w>
얹 혀
언젠 지</w>
언 서</w>
억 하심정</w>
억 제</w>
억 압</w>
어쩔 지</w>
어쩔 까</w>
어지러 움</w>
어울 려야</w>
어버 이</w>
어리 바
어리바 리</w>
어떤 지에</w>
어딘 지</w>
어두 워져서</w>
어두 우</w>
어깨 동무</w>
어긋 난</w>
어 카</w>
어 쩐</w>
어 쨌든</w>
어 설
어설 프</w>
어 서야</w>
어 서라도</w>
어 모아</w>
어 렵
어렵 사리</w>
어 땠
어땠 을까</w>
어 때</w>
어 때
어때 서</w>
어 긴</w>
어 그러지</w>
어 겨</w>
얘 긴데</w>
양 화</w>
양 호실</w>
양 인</w>
얌 전히</w>
얌 전</w>
얄 미운</w>
약 혼자</w>
약 혼</w>
약 해져</w>
약 한지</w>
약 도</w>
약 관</w>
야단 쳤</w>
야 윈</w>
야 반
야반 도주</w>
야 박</w>
야 말로</w>
앨 범</w>
애프 터</w>
애 틋</w>
애 칭</w>
애 완견</w>
애 쓴</w>
애 썼</w>
애 써서</w>
애 사
애사 심</w>
애 먹</w>
애 꿎</w>
앞당 겨졌</w>
앙 상</w>
압 도</w>
앓 이</w>
알츠하이 머
알츠하이머 병</w>
알아 차릴</w>
알아 줄</w>
알아 본다고</w>
알 콜</w>
알 차</w>
알 지</w>
알 약</w>
알 바라</w>
알 려서</w>
안타까 웠</w>
안 쪽</w>
안 위</w>
안 식
안식 처</w>
안 락</w>
안 겨서</w>
안 건</w>
악착 같</w>
악 몽</w>
아파 할</w>
아파 질</w>
아이 엠에프</w>
아이 스</w>
아쉬 워하</w>
아비 규
아비규 환</w>
아름 답</w>
아니 꼽</w>
아낌 없</w>
아 원</w>
아 실까</w>
아 슬</w>
아 슬
아슬 아슬</w>
아 셨으면</w>
아 사</w>
아 물</w>
아 려
아려 와</w>
아 랑
아랑 곳</w>
아 라</w>
아 드</w>
아 님</w>
아 났</w>
아 날</w>
아 나
아나 운서</w>
아 낀</w>
아 궁
아궁 이</w>
아 가</w>
씨 씨</w>
쓸 데</w>
쓴 다면서</w>
쓰 일</w>
쓰 림</w>
쑥 스러운</w>
쏠 려서</w>
쏟아 져서</w>
쏜 살</w>
썰 매</w>
썩 히</w>
써 먹</w>
써 놨</w>
쌤 통</w>
쌓 았</w>
쌍 방</w>
쌀 농사</w>
싸워 왔</w>
싸운 다는</w>
싸 고
싸고 돌</w>
싱거 워서</w>
싱거 운</w>
십 상</w>
심 혈</w>
심 풀이</w>
심 이</w>
심 심풀이</w>
심 성의껏</w>
심 성</w>
심 경</w>
심 거리</w>
실제 론</w>
실 효</w>
실 전</w>
실 용음악</w>
실 습생</w>
실 버
실버 타운</w>
실 물</w>
실 무</w>
실 로</w>
실 랑이</w>
실 내
실내 화</w>
신호 위</w>
신 축</w>
신 청자</w>
신 생</w>
신 사업</w>
신 비</w>
신 대서</w>
신 다면</w>
신 다니까</w>
신 다는데</w>
신 념</w>
신 나고</w>
식사 비</w>
식도 암</w>
식 충</w>
식 중독</w>
식 자재</w>
식 자</w>
식 모</w>
시집 와서</w>
시집 갈</w>
시끌 벅
시끌벅 적</w>
시 행착오</w>
시 킬까봐</w>
시 킨다고</w>
시 안</w>
시 민</w>
시 리</w>
시 려서</w>
시 려</w>
시 렁거리</w>
시 들</w>
시 댄</w>
시 늉</w>
시 녀</w>
승 연</w>
승 객</w>
습 범</w>
슴 벌레</w>
슬퍼 했</w>
슬 기</w>
스페 인어</w>
스페 인</w>
스페 셜</w>
스토 킹</w>
스토 커</w>
스카 이</w>
스러 울까</w>
스 파게티</w>
스 킬</w>
스 키</w>
스 크린</w>
스 컴</w>
스 위스</w>
슈퍼 맨</w>
쉬 워졌</w>
쉬 워야</w>
쉬 워</w>
쉬 울</w>
숨 죽이</w>
숨 길까</w>
술 잔치</w>
순 탄</w>
순 진</w>
순 이익</w>
순 이</w>
순 순히</w>
숙 인</w>
숙 아</w>
숙 면</w>
수군 거렸</w>
수 확</w>
수 혜</w>
수 치심</w>
수 천만</w>
수 줍음</w>
수 전증</w>
수 의사</w>
수 유</w>
수 요</w>
수 완</w>
수 사</w>
수 빈</w>
수 립</w>
수 레</w>
수 동</w>
수 금</w>
쇼 핑몰</w>
쇼 윈도</w>
쇠 퇴</w>
송 장</w>
송 년회</w>
솟 아날</w>
손 톱</w>
손 수레</w>
손 상</w>
손 버릇</w>
손 들</w>
손 댈</w>
속 하</w>
속 앓이</w>
속 셈</w>
속 보</w>
속 말</w>
소아 마비</w>
소비 력</w>
소모 적</w>
소리 쳐서</w>
소 희</w>
소 형차</w>
소 지품</w>
소 정</w>
소 장</w>
소 인배</w>
소 신</w>
소 모임</w>
소 매
소매 치기</w>
소 망</w>
소 도둑</w>
셨 으니</w>
셔 왔</w>
셋 째</w>
세 탁기</w>
세 탁</w>
세 코</w>
세 차</w>
세 부</w>
세 력</w>
세 기</w>
세 균</w>
성적 순</w>
성가 신데</w>
성 취감</w>
성 찰</w>
성 찬</w>
성 장기</w>
성 심성의껏</w>
성 문</w>
성 급히</w>
성 교육</w>
섬 유증</w>
설 쳐</w>
설 움</w>
설 업</w>
설 맞이</w>
설 령</w>
설 렜</w>
설 렘</w>
설 렌
설렌 다</w>
선 풍기</w>
선 포</w>
선 입견</w>
선 의</w>
선 상</w>
선 량</w>
선 동</w>
섞 여</w>
서러 움</w>
서러 울</w>
서 점</w>
서 의</w>
서 양화</w>
서 리</w>
서 둘러야</w>
서 둘
서둘 렀</w>
서 니</w>
서 기</w>
샤 프</w>
생긴 대</w>
생각 난다</w>
생 태</w>
생 이</w>
생 산
생산 직</w>
생 사</w>
생 물
생물 학자</w>
생 머리</w>
생 략</w>
생 계비</w>
새 총</w>
새 아버지</w>
새 로워</w>
새 나</w>
새 끼</w>
새 길</w>
상대 편</w>
상대 측</w>
상 해도</w>
상 품권</w>
상 종</w>
상 습범</w>
상 사면</w>
상 복</w>
상 머리</w>
상 맞</w>
상 도</w>
삿 대</w>
삼 포</w>
삼 성</w>
삼 성
살아 와서</w>
살아 갈까</w>
살아 간다는</w>
살 폈</w>
살 살</w>
살 린</w>
살 균
살균 제</w>
살 가운</w>
산 조각</w>
산 송장</w>
산 산조각</w>
산 사</w>
산 만</w>
산 다면</w>
산 다는데</w>
산 골
산골 짜기</w>
삭 신</w>
사이 비</w>
사망 률</w>
사라 진다는</w>
사돈 집</w>
사귄 다는</w>
사과 드리</w>
사고 뭉치</w>
사 탕</w>
사 체</w>
사 채업자</w>
사 죄</w>
사 정사정</w>
사 온</w>
사 양</w>
사 안</w>
사 슴벌레</w>
사 셔야</w>
사 비</w>
사 법</w>
사 례</w>
사 레</w>
사 량</w>
사 들인</w>
사 달</w>
사 냥</w>
사 교육비</w>
사 교
사교 성</w>
사 골</w>
사 각
사각 지대</w>
삐뚤 어질</w>
삐걱 대</w>
삐 쳤</w>
삐 쩍</w>
삐 진</w>
뿌 옇</w>
뿌 린</w>
뿌 리
뿌리 쳤</w>
뿌 려</w>
뽑 힌</w>
뽀 삐</w>
뼈 저리</w>
뼈 마디</w>
뺏 겨</w>
빼 돌려서</w>
빨개 질</w>
빨개 지고</w>
빨개 지</w>
빨개 져</w>
빨 리
빨리 빨리</w>
빨 랐</w>
빨 라졌</w>
빨 개</w>
빨 갛</w>
빡 빡</w>
빠져 드</w>
빠져 나왔</w>
빠 짐</w>
빠 진다고</w>
빠 를수록</w>
빠 를</w>
빠 른데</w>
빠 뜨리</w>
빠 뜨렸</w>
빛 나</w>
빚 지</w>
빚 내</w>
빌 빌
빌빌 거리</w>
빈둥 거리</w>
빈 정대</w>
빈 다고</w>
빈 곤
빈곤 층</w>
비싼 지</w>
비 형</w>
비 틀</w>
비 출</w>
비 일비재</w>
비 웃음</w>
비 상
비 벽</w>
비 로</w>
비 대
비대 증</w>
비 꼼</w>
브로 커</w>
브 리
브리 핑</w>
브 런
브런 치</w>
붙 였</w>
붙 여서</w>
붉 어져서</w>
붉 어져</w>
불러 야</w>
불 평불만</w>
불 운</w>
불 어나</w>
불 신</w>
불 상사</w>
불 미</w>
불 만족</w>
불 룩</w>
불 렸</w>
불 결</w>
불 견</w>
분 해</w>
분 별</w>
분 별
분별 력</w>
분 란</w>
북 적이</w>
부추 겨서</w>
부정 행위</w>
부러워 할</w>
부딪 힐</w>
부딪 혔</w>
부도 났</w>
부끄러워 서라도</w>
부끄러 워져</w>
부끄러 울까</w>
부 케</w>
부 침개</w>
부 정당</w>
부 적합</w>
부 자
부 응</w>
부 업거리</w>
부 어서</w>
부 스
부 모
부모 덕</w>
부 릴까</w>
부 릴</w>
부 렸었</w>
부 드러
부 둥
부둥 켜안</w>
부 답</w>
부 금</w>
부 근</w>
부 간</w>
봐 준</w>
봐 주지</w>
봐 야겠다</w>
봉 사자</w>
봉 급</w>
볼 걸</w>
본 체만체</w>
본 전</w>
본 드</w>
복 판</w>
복 사기</w>
복 사</w>
보인 다</w>
보여 질까</w>
보살펴 야</w>
보람 찬</w>
보 조금</w>
보 일러</w>
보 육원</w>
보 완</w>
보 양</w>
보 안</w>
보 물
보물 찾기</w>
보 듬</w>
보 드</w>
병 풍</w>
별 장</w>
별 의별</w>
별 수</w>
별 세</w>
별 반</w>
별 걱정</w>
변 할까</w>
변 태</w>
변 치</w>
벽 지</w>
벼 슬</w>
벼 락</w>
벼 락
벼락 치기</w>
벤 처</w>
베 트남</w>
베 이비
베 스트</w>
베 껴서</w>
벗 어날지</w>
법 정</w>
법 인</w>
범 주</w>
벌어 질지</w>
벌 컥</w>
벌 점</w>
벌 어먹</w>
벌 서</w>
벌 려</w>
번거 롭</w>
번 져서</w>
번 역</w>
번 드
번드 르르</w>
벅 찬</w>
버텨 준</w>
버릇 없이</w>
버렸 으니</w>
버렸 었</w>
버려 질</w>
버려 뒀</w>
버려 두</w>
버려 도</w>
버거 운데</w>
버거 운</w>
버 팀목</w>
버 틸지</w>
버 킷</w>
버 젓이</w>
버 린
버 럭
버 둥</w>
밸 런스</w>
밴 드</w>
백 해무익</w>
백 질</w>
백 일</w>
백 미</w>
배고 픔</w>
배고 파도</w>
배 워도</w>
배 웅</w>
배 움</w>
배 신자</w>
배 당</w>
배 달
배달 원</w>
배 다른</w>
밭 일</w>
방 탄</w>
방 예의지국</w>
방 송
방 석</w>
밥 상머리</w>
밤 샘</w>
밤 샌</w>
밝혀 져</w>
밝 아지</w>
밝 아졌</w>
발 효</w>
발 현</w>
발 표회</w>
발 인</w>
발 버둥</w>
발 리</w>
발 레</w>
발 끝</w>
받아들 일까</w>
받 자</w>
반신 반
반신반 의</w>
반 차</w>
반 쪽</w>
반 주자</w>
반 점</w>
반 성문</w>
반 병</w>
반 반</w>
반 등</w>
반 겨
반겨 줄</w>
박 힐</w>
박 탈</w>
박 카스</w>
박 또
박또 박</w>
바이 오</w>
바른 길</w>
바람 맞</w>
바람 난</w>
바람 나</w>
바라 봐</w>
바라 볼</w>
바꿔 치기</w>
바 짓가랑이</w>
바 자회</w>
바 일</w>
바 뻐서</w>
바 빠졌</w>
바 리
바리 스타</w>
바 로잡</w>
바 랬</w>
바 랄지</w>
바 란</w>
바 들</w>
바 들
바들 바들</w>
바 둑</w>
바 늘
바늘 방석</w>
바 뀐
바뀐 다고</w>
밉 보이</w>
밉 보였</w>
밀어 주</w>
밀려 날</w>
밀 히</w>
밀 린다는</w>
믿 겨져</w>
민 지</w>
민 원인</w>
민 우</w>
믹 듀
믹듀 오</w>
미끄러 질</w>
미끄러 져서</w>
미 화</w>
미 쳤었</w>
미 워해서</w>
미 어지</w>
미 숙아</w>
미 세</w>
미 비</w>
미 룬
미 디어</w>
미 들</w>
미 더운</w>
미 달</w>
미 꾸
미꾸 라지</w>
미 관상</w>
뭇 잎</w>
물어 내</w>
물 으시는데</w>
물 원</w>
물 욕</w>
물 병</w>
물 리치료</w>
물 류</w>
물 려서</w>
물 거리</w>
문제 지</w>
문 중</w>
문 젠
문 외한</w>
문 에</w>
문 명</w>
문 뜩</w>
문 단속</w>
문 구</w>
문 고</w>
묵묵 부답</w>
무서 워해서</w>
무서 운지</w>
무서 운데</w>
무서 우</w>
무너 져서</w>
무너 져내릴</w>
무거 웠</w>
무거 워진</w>
무 효</w>
무 지하</w>
무 지
무 전취식</w>
무 자</w>
무 임승차</w>
무 용지물</w>
무 역</w>
무 언</w>
무 색</w>
무 리
무리 지</w>
무 릅
무릅 쓰</w>
무 량</w>
무 당</w>
무 난히</w>
무 관</w>
못 했으니</w>
못 할망정</w>
못 한대</w>
못 한다면</w>
못 한다</w>
못 썼</w>
못 산다고</w>
못 났</w>
못 가</w>
몸살 감기</w>
몸 조심</w>
몰아 세웠</w>
몰아 붙이</w>
몰려 와서</w>
몰라 볼</w>
목 표
목 장</w>
목 사</w>
목 길</w>
목 구멍</w>
모자 르</w>
모자 란다고</w>
모른 다더니</w>
모른 다는데</w>
모른 다</w>
모 회사</w>
모 형</w>
모 피</w>
모 의</w>
모 유</w>
모 여야</w>
모 아야지</w>
모 실</w>
모 셔왔</w>
모 셔야</w>
모 셔</w>
모 바일</w>
모 멸감</w>
모 독</w>
모 니
모니 터</w>
모 녀</w>
모 교</w>
명 소</w>
명 성</w>
명 동</w>
면역 성</w>
면 은</w>
면 역</w>
멘 탈</w>
메 이커</w>
메 울</w>
메 우</w>
메 슥
메 마른</w>
메 꿀</w>
멍 해졌</w>
멍 청이</w>
멍 울</w>
멋 졌</w>
멋 쟁이</w>
멈 칫</w>
멈 춰서</w>
멀뚱 히</w>
머 지않</w>
머 뭇</w>
머 무르</w>
맹 장</w>
맹 세코</w>
맹 세</w>
맬 까</w>
맨 발</w>
맥 류</w>
매달 려서</w>
매니 큐어</w>
매 체</w>
매 여</w>
매 시간</w>
매 스컴</w>
매 섭</w>
매 물</w>
매 도</w>
매 끄
매끄 럽</w>
맡아 봤</w>
맡 겼으니</w>
맞춰 볼</w>
맞장 구
맞장구 치</w>
맞 출까</w>
맞 은편</w>
맞 받아
망가 뜨리</w>
망 쳐놨</w>
망 언</w>
맛 본</w>
맘 먹</w>
말 아먹</w>
말 린다고</w>
말 단</w>
만족 도</w>
만족 감</w>
만 화책</w>
만 일</w>
만 료
만료 일</w>
만 든다고</w>
만 든
막 힘없이</w>
막 차</w>
막 냇
막냇 동생</w>
막 길</w>
마찬 가
마찬가 진데</w>
마주 칠까</w>
마주 쳐도</w>
마음 잡</w>
마음 씨</w>
마셔 본</w>
마셔 버렸</w>
마려 워</w>
마 카롱</w>
마 인드</w>
마 을
마 신다고</w>
마 셔야</w>
마 보이</w>
마 마보이</w>
마 리</w>
마 라</w>
마 당
마당 발</w>
마 누</w>
마 녀</w>
립 식</w>
림 칙</w>
리 어카</w>
리 아</w>
른 지</w>
른 가</w>
르 륵</w>
룹 웨어</w>
루 머</w>
롯 데
롯데 월드</w>
론 가</w>
록 부</w>
로 운가</w>
로 상</w>
로 맨
로 따로</w>
렬 히</w>
력 히</w>
려 고도</w>
렌 스</w>
레 인지</w>
레 벨</w>
레 고</w>
럼 에도</w>
런 지</w>
런 가</w>
래 는</w>
란 다</w>
락 서니</w>
락 거리</w>
라 운</w>
라 식</w>
라 버렸</w>
라 는지</w>
뜸 했</w>
뜯어 내</w>
뜬금 없</w>
뜨 끔</w>
뛰쳐 나왔</w>
뛰쳐 나가</w>
뛰어 들</w>
뛰어 든</w>
뛰어 다니</w>
뛰어 넘</w>
똑 소리</w>
또 박또박</w>
떼 이</w>
떨어 트려</w>
떨어 뜨린</w>
떨어 뜨리</w>
떨 칠</w>
떡 하니</w>
떡 없</w>
떠 올려도</w>
떠 올려</w>
떠 보</w>
떠 미</w>
떠 든</w>
떠 난다면</w>
떠 난다고</w>
떠 나왔</w>
떄 문에</w>
땡 볕</w>
때려 치</w>
때 렸었</w>
때 려야</w>
때 때로</w>
땀 나</w>
딴 청</w>
딴 지</w>
딴 죽</w>
딱 해</w>
따라 했</w>
따라 간다고</w>
따돌 린다고</w>
따 분</w>
따 로따로</w>
딩 크족</w>
디 지털</w>
등 진</w>
등 졌</w>
등 산
등 바</w>
듦 이</w>
들이 밀</w>
들이 대</w>
들으 려고도</w>
들어 와야</w>
들어 올까</w>
들어 온대</w>
들어 섰</w>
들어 선</w>
들어 간대</w>
들려 주</w>
들려 왔</w>
들러 리</w>
들 통나</w>
들 켰으니</w>
들 으려면</w>
들 으라고</w>
들 르</w>
들 러서</w>
들 떴</w>
들 떠서</w>
든 다면서</w>
드 실</w>
드 셔</w>
드 문</w>
드 림</w>
드 린다고</w>
드 린다</w>
뒷 조사</w>
뒷 골목</w>
뒤통 수치</w>
뒤쳐 진</w>
뒤쳐 져</w>
뒤처 졌</w>
뒤처 져</w>
뒤집어 엎</w>
뒤 졌</w>
뒤 바뀌</w>
뒤 따라갔</w>
뒀 었</w>
둘러 싸인</w>
둘러 봐도</w>
둔 해져서</w>
둔 갑</w>
두루 두
두루두 루</w>
두려 워하</w>
두 터운</w>
두 었</w>
두 어</w>
두 뇌</w>
두 꺼
된 단다</w>
되 새길</w>
되 돌</w>
되 갚</w>
돼 지고기</w>
돼 요</w>
동성 연애</w>
동 행</w>
동 의서</w>
동 양인</w>
동 심</w>
동 선</w>
동 사무소</w>
동 방예의지국</w>
동 물원</w>
동 맥</w>
동 동</w>
동 댕
동댕 이
동 경</w>
돌아 와야</w>
돌아 와도</w>
돌아 온다고</w>
돌아 온</w>
돌아 다녀</w>
돌아 갈지</w>
돌려 줬</w>
돌려 줘</w>
돌려 보내</w>
돌 침대</w>
돌 연</w>
돌 본</w>
돌 덩이</w>
돈 다고</w>
독 일</w>
독 려</w>
도우 며</w>
도망 친</w>
도 용</w>
도 왔</w>
도 수</w>
도 나도</w>
도 가
도가 니</w>
데려 올</w>
데려 갈까</w>
데려 갈</w>
데 이</w>
데 없이</w>
덮 치</w>
덩 그러</w>
덧 없</w>
덤벼 서</w>
덜 미</w>
덜 렁거리</w>
던 져서</w>
더럽 혀</w>
더 치</w>
더 우니</w>
더 불</w>
더 뎌서</w>
더 기</w>
더 구먼</w>
더 구만</w>
대중 목욕탕</w>
대상 포진</w>
대리 운전</w>
대 회장</w>
대 화방</w>
대 할까</w>
대 폭</w>
대 치</w>
대 체로</w>
대 졸</w>
대 적</w>
대 안</w>
대 시</w>
대 수</w>
대 변</w>
대 범</w>
대 물림</w>
대 만</w>
대 략</w>
대 든다고</w>
대 대로</w>
대 대</w>
대 다수</w>
당 겼</w>
답 한</w>
답 례</w>
담 담</w>
담 근</w>
담 겨</w>
담 갔</w>
담 가</w>
담 가
달 팽이관</w>
달 콤</w>
달 여</w>
달 아나</w>
달 려</w>
달 랐</w>
달 달</w>
달 갑</w>
달 가
달가 워하</w>
닫 혀</w>
단골 집</w>
단 합</w>
단 칼</w>
단 체복</w>
단 장</w>
단 백질</w>
단 독</w>
단 데</w>
단 기간</w>
닥 쳤</w>
닥 쳐서</w>
다이 나
다이나 믹듀오</w>
다름 없이</w>
다닐 지</w>
다닌 다</w>
다녀 올까</w>
다녀 봐야</w>
다 툰다고</w>
다 크서클</w>
다 쳤으나</w>
다 쳤었</w>
다 른가</w>
다 룰</w>
다 룬
다 든가</w>
늦 출</w>
늘어 진</w>
늘어 졌</w>
늘 어날</w>
늘 씬</w>
늘 려야</w>
늘 려서</w>
는 다든지</w>
는 다더니</w>
느껴 질까</w>
느 릿
느 린데</w>
느 낀다고</w>
뉘 우치</w>
눌 리</w>
눈치 보</w>
눈 코</w>
눈 여겨</w>
눈 병</w>
눈 길</w>
눈 감</w>
누 울</w>
누 런</w>
누 더기</w>
뇌 혈관</w>
뇌 사</w>
놨 더라</w>
놔 둔</w>
놔 두었</w>
놓 칠</w>
놓 쳐버렸</w>
놓 아주</w>
높 일</w>
높 인</w>
농사 일</w>
농 약</w>
농 사지</w>
농 기계</w>
놀림 감</w>
놀러 갔</w>
놀 린다</w>
놀 러</w>
놀 래</w>
놀 랐었</w>
논 대</w>
논 다니</w>
녹 차</w>
녹 용</w>
노여 운</w>
노름 빚</w>
노동 청</w>
노동 부</w>
노 출증</w>
노 처녀</w>
노 엽</w>
노 릴</w>
노 린</w>
노 령</w>
노 려
노 니까</w>
년 층</w>
네 일</w>
네 이트</w>
넘어 오</w>
넘어 뜨리</w>
넘어 뜨렸</w>
넘어 갈까</w>
넘 어서</w>
넘 길까</w>
넓 히</w>
넌 지시</w>
넋 두리</w>
넉 히</w>
넉 넉히</w>
너 도나도</w>
냉동 실</w>
냄 새나</w>
낼 모레</w>
내편 이</w>
내리 막길</w>
내려 질</w>
내려 줄</w>
내려 왔</w>
내게 만</w>
내 후년</w>
내 편</w>
내 키</w>
내 칠</w>
내 쳐</w>
내 줄</w>
내 비치</w>
내 보냈</w>
내 보낼</w>
내 버리</w>
내 버려뒀</w>
내 몰리</w>
내 려야</w>
내 동댕이
내 달</w>
내 놨</w>
내 년도</w>
낯 빛</w>
낮 춰야</w>
낮 춰서</w>
낭 비벽</w>
납 입</w>
남겨 줄</w>
남겨 져서</w>
남겨 져</w>
남 탕</w>
남 잔데</w>
남 일</w>
남 아나</w>
남 루</w>
남 다른</w>
남 김없이</w>
날카 로워</w>
날카 로
날아 간</w>
날 보고</w>
날 릴까</w>
날 로</w>
날 뛰</w>
날 까봐</w>
난 방</w>
난 데없이</w>
난 관</w>
낙 태</w>
낙 찰</w>
낙 오자</w>
낙 오</w>
나온 다니</w>
나온 다는</w>
나아 져야</w>
나아 갈</w>
나 흘</w>
나 을지도</w>
나 을까</w>
나 왔으니</w>
나 뭇잎</w>
나 들이</w>
나 돌</w>
나 뉘</w>
나 갔었</w>
나 간다는</w>
낄 낄
끼 쳐서</w>
끼 어
끝 자락</w>
끔 뻑</w>
끓 이</w>
끌어 오</w>
끌어 안</w>
끊 인</w>
끊 어질</w>
끊 겨</w>
끈 질기</w>
끄 떡없</w>
꿔 온</w>
꿋 이</w>
꿋 꿋이</w>
꾸며 서</w>
꾸 역꾸역</w>
꾸 물거리</w>
꾸 려야</w>
꾸 려서</w>
꾸 려
꾸 라졌</w>
꼴 불견</w>
꼬 인</w>
꼬 마</w>
꼬 르륵</w>
꼬 락서니</w>
껴 도</w>
꺼 진</w>
꺼 져서</w>
꺼 림칙</w>
깨우 쳤</w>
깨끗 이</w>
깨 트렸</w>
깨 진</w>
깨 어날지</w>
깨 뜨려서</w>
깡 통</w>
깜 무소식</w>
깜 깜무소식</w>
깎 일</w>
깎 여</w>
까다 로워서</w>
까다 로워</w>
까 불</w>
까 닥</w>
김치 찌개</w>
길 바닥</w>
길 목</w>
길 렀</w>
길 러야</w>
길 길이</w>
긴 다</w>
기획 력</w>
기울 인</w>
기본 급</w>
기독 교</w>
기다 림</w>
기다 려도</w>
기 혼자</w>
기 형아</w>
기 프</w>
기 지개</w>
기 죽</w>
기 절초풍</w>
기 원</w>
기 워</w>
기 수</w>
기 선</w>
기 색</w>
기 부금</w>
기 발</w>
기 반찬</w>
기 말</w>
기 막혀</w>
기 록부</w>
기 라</w>
기 대치</w>
기 간
기간 제</w>
급 적</w>
급 작</w>
급 식비</w>
급 사</w>
급 금</w>
급 감</w>
금 지
금 일</w>
금 이</w>
금 슬</w>
금 속</w>
금 산사</w>
금 값</w>
긁 어모아</w>
근 황</w>
근 질근질</w>
근 이</w>
근 육통</w>
근 소</w>
근 본</w>
근 무지</w>
근 데도</w>
그만 한</w>
그리 울</w>
그려 지</w>
그럴 까봐</w>
그러 다</w>
그러 니깐</w>
그래 왔</w>
그 지</w>
그 림
그 룹웨어</w>
그 렸</w>
그 럼에도</w>
귓 속말</w>
귀 인</w>
권 해서</w>
궁 해서</w>
궁 상맞</w>
궁 상</w>
굽 실
굽 신
굴 렸</w>
굴 레</w>
굴 렀</w>
굴 러서</w>
굳 기</w>
군 인</w>
군 소리</w>
군 살</w>
군 무원</w>
군 만두</w>
군 것
군것 질</w>
국 회의원</w>
국 수</w>
구 했었</w>
구 해
구 타</w>
구 조대</w>
구 식</w>
구 시렁거리</w>
구 비</w>
구 름</w>
구 니</w>
구 글</w>
교 활</w>
교 태</w>
교 재</w>
교 육부</w>
교 양</w>
교 기념일</w>
교 과</w>
굉 장</w>
괴 사</w>
괴 리</w>
광 택</w>
광 지</w>
광 주</w>
관 점</w>
관 대</w>
관 광지</w>
과 했</w>
과 해</w>
과 잉보호</w>
과 신</w>
과 속</w>
과 분</w>
과 묵</w>
과 감</w>
공 직자</w>
공 직</w>
공 중</w>
공 적</w>
공 익</w>
공 약</w>
공 세</w>
공 백</w>
공 문</w>
공 로상</w>
공 략</w>
공 돈</w>
공 대</w>
공 군</w>
골골 거리</w>
골 탕먹</w>
골 수</w>
골 병들</w>
골 병</w>
골 목길</w>
골 머리</w>
골 고
골고 루</w>
곡 물</w>
고쳐 야지</w>
고용 주</w>
고마 워할</w>
고마 워하</w>
고달 프</w>
고 팠</w>
고 파</w>
고 쳐서</w>
고 참</w>
고 질</w>
고 정비</w>
고 위</w>
고 열로</w>
고 액</w>
고 아원</w>
고 시원</w>
고 부간</w>
고 배</w>
고 를</w>
고 르기</w>
고 꾸라졌</w>
고 기반찬</w>
고 관절</w>
계 신데</w>
계 산대</w>
계 산
경쟁 심</w>
경쟁 력</w>
경영 인</w>
경로 석</w>
경 쾌</w>
경 위</w>
경 식</w>
경 솔</w>
경 미</w>
경 기도</w>
겹 쳤</w>
겹 쳐</w>
결 코</w>
결 절</w>
결 백</w>
견 이</w>
격 해져서</w>
격 해</w>
격 투기</w>
격 식</w>
겨 우겨우</w>
겨 보</w>
겠 다며</w>
겠 는데</w>
겠 구나</w>
게으 를</w>
게 임방</w>
게 야</w>
게 걸</w>
겁 먹</w>
검 정</w>
검 수</w>
걸음 마</w>
걸어 왔</w>
걸어 와서</w>
걸어 다니</w>
걸렸 을까</w>
걸려 온</w>
건축 주</w>
건너 뛰</w>
건 전지</w>
건 설업</w>
건 방지</w>
건 방
건 들</w>
건 드린</w>
건 드렸</w>
건 넸</w>
거 쳐서</w>
거 창</w>
거 참</w>
거 르</w>
거 들</w>
거 뒀</w>
거 긴</w>
거 금</w>
객관 적으로</w>
객 관</w>
개 천</w>
개 조</w>
개 인사</w>
개 봉</w>
개 별</w>
개 방</w>
개 무량</w>
개 교기념일</w>
개 개인</w>
갖 은</w>
강원 랜드</w>
강 탈</w>
강 점</w>
강 의실</w>
강 습</w>
강 력히</w>
강 력</w>
감 자</w>
감 염병</w>
감 돌</w>
감 개무량</w>
갈 피</w>
갈 팡질팡</w>
갈 아주</w>
갈 리</w>
갈 려고</w>
갈 라지</w>
갈 걸</w>
간지 러워서</w>
간 호
간 장</w>
간 이식</w>
간 밤</w>
간 략</w>
간 다면서</w>
간 다며</w>
간 다던</w>
간 다니까</w>
각 별히</w>
각 별</w>
가져다 줄</w>
가물 치</w>
가물 가
가물가 물</w>
가만 있</w>
가르 침</w>
가로 등</w>
가려 워서</w>
가라앉 힐</w>
가까 웠</w>
가까 워질</w>
가 혹</w>
가 질지</w>
가 전제품</w>
가 이드라인</w>
가 이드</w>
가 요</w>
가 버리</w>
가 버려</w>
가 면</w>
가 량</w>
가 래</w>
가 동</w>
가 도</w>
가 늠</w>
가 급적</w>
가 관</w>
